{
  "version": "1.0",
  "truncation": null,
  "padding": {
    "strategy": "BatchLongest",
    "direction": "Right",
    "pad_to_multiple_of": null,
    "pad_id": 0,
    "pad_type_id": 0,
    "pad_token": "<pad>"
  },
  "added_tokens": [
    {
      "id": 0,
      "content": "<pad>",
      "single_word": false,
      "lstrip": false,
      "rstrip": false,
      "normalized": false,
      "special": true
    },
    {
      "id": 1,
      "content": "<mask>",
      "single_word": false,
      "lstrip": false,
      "rstrip": false,
      "normalized": false,
      "special": true
    },
    {
      "id": 2,
      "content": "<unk>",
      "single_word": false,
      "lstrip": false,
      "rstrip": false,
      "normalized": false,
      "special": true
    },
    {
      "id": 3,
      "content": "<end>",
      "single_word": false,
      "lstrip": false,
      "rstrip": false,
      "normalized": false,
      "special": true
    }
  ],
  "normalizer": {
    "type": "Sequence",
    "normalizers": [
      {
        "type": "NFD"
      },
      {
        "type": "StripAccents"
      }
    ]
  },
  "pre_tokenizer": {
    "type": "Sequence",
    "pretokenizers": [
      {
        "type": "Whitespace"
      }
    ]
  },
  "post_processor": {
    "type": "ByteLevel",
    "add_prefix_space": true,
    "trim_offsets": true,
    "use_regex": true
  },
  "decoder": {
    "type": "WordPiece",
    "prefix": "##",
    "cleanup": true
  },
  "model": {
    "type": "WordPiece",
    "unk_token": "<unk>",
    "continuing_subword_prefix": "##",
    "max_input_chars_per_word": 100,
    "vocab": {
      "<pad>": 0,
      "<mask>": 1,
      "<unk>": 2,
      "<end>": 3,
      "\u001b": 4,
      "!": 5,
      "\"": 6,
      "#": 7,
      "$": 8,
      "%": 9,
      "&": 10,
      "'": 11,
      "(": 12,
      ")": 13,
      "*": 14,
      "+": 15,
      ",": 16,
      "-": 17,
      ".": 18,
      "/": 19,
      "0": 20,
      "1": 21,
      "2": 22,
      "3": 23,
      "4": 24,
      "5": 25,
      "6": 26,
      "7": 27,
      "8": 28,
      "9": 29,
      ":": 30,
      ";": 31,
      "<": 32,
      "=": 33,
      ">": 34,
      "?": 35,
      "@": 36,
      "A": 37,
      "B": 38,
      "C": 39,
      "D": 40,
      "E": 41,
      "F": 42,
      "G": 43,
      "H": 44,
      "I": 45,
      "J": 46,
      "K": 47,
      "L": 48,
      "M": 49,
      "N": 50,
      "O": 51,
      "P": 52,
      "Q": 53,
      "R": 54,
      "S": 55,
      "T": 56,
      "U": 57,
      "V": 58,
      "W": 59,
      "X": 60,
      "Y": 61,
      "Z": 62,
      "[": 63,
      "\\": 64,
      "]": 65,
      "^": 66,
      "_": 67,
      "`": 68,
      "a": 69,
      "b": 70,
      "c": 71,
      "d": 72,
      "e": 73,
      "f": 74,
      "g": 75,
      "h": 76,
      "i": 77,
      "j": 78,
      "k": 79,
      "l": 80,
      "m": 81,
      "n": 82,
      "o": 83,
      "p": 84,
      "q": 85,
      "r": 86,
      "s": 87,
      "t": 88,
      "u": 89,
      "v": 90,
      "w": 91,
      "x": 92,
      "y": 93,
      "z": 94,
      "{": 95,
      "|": 96,
      "}": 97,
      "~": 98,
      "": 99,
      "¡": 100,
      "ß": 101,
      "ı": 102,
      "ɸ": 103,
      "ʰ": 104,
      "ʷ": 105,
      "Σ": 106,
      "Φ": 107,
      "μ": 108,
      "а": 109,
      "б": 110,
      "д": 111,
      "е": 112,
      "и": 113,
      "к": 114,
      "л": 115,
      "м": 116,
      "н": 117,
      "о": 118,
      "п": 119,
      "с": 120,
      "т": 121,
      "у": 122,
      "х": 123,
      "ч": 124,
      "щ": 125,
      "ю": 126,
      "я": 127,
      "ґ": 128,
      "क": 129,
      "ष": 130,
      "ந": 131,
      "ಠ": 132,
      "ก": 133,
      "ณ": 134,
      "ร": 135,
      "ว": 136,
      "เ": 137,
      "ᄀ": 138,
      "ᄉ": 139,
      "ᄋ": 140,
      "ᄌ": 141,
      "ᄒ": 142,
      "ᅡ": 143,
      "ᅥ": 144,
      "ᅩ": 145,
      "ᅮ": 146,
      "ᆨ": 147,
      "ᆫ": 148,
      "–": 149,
      "’": 150,
      "℃": 151,
      "№": 152,
      "⌘": 153,
      "✓": 154,
      "✗": 155,
      "⤷": 156,
      "Ɐ": 157,
      "、": 158,
      "。": 159,
      "々": 160,
      "あ": 161,
      "い": 162,
      "え": 163,
      "か": 164,
      "く": 165,
      "こ": 166,
      "し": 167,
      "た": 168,
      "ち": 169,
      "て": 170,
      "と": 171,
      "に": 172,
      "の": 173,
      "は": 174,
      "ま": 175,
      "る": 176,
      "ろ": 177,
      "を": 178,
      "ゝ": 179,
      "ァ": 180,
      "ィ": 181,
      "イ": 182,
      "コ": 183,
      "シ": 184,
      "ス": 185,
      "セ": 186,
      "タ": 187,
      "ッ": 188,
      "テ": 189,
      "ト": 190,
      "ナ": 191,
      "ハ": 192,
      "ヒ": 193,
      "フ": 194,
      "ロ": 195,
      "ン": 196,
      "ー": 197,
      "ヽ": 198,
      "㈱": 199,
      "㋐": 200,
      "㋑": 201,
      "㋒": 202,
      "㋓": 203,
      "㋔": 204,
      "㌘": 205,
      "㌰": 206,
      "一": 207,
      "不": 208,
      "专": 209,
      "中": 210,
      "为": 211,
      "了": 212,
      "予": 213,
      "于": 214,
      "仅": 215,
      "今": 216,
      "们": 217,
      "件": 218,
      "作": 219,
      "供": 220,
      "信": 221,
      "先": 222,
      "其": 223,
      "具": 224,
      "出": 225,
      "创": 226,
      "到": 227,
      "制": 228,
      "前": 229,
      "动": 230,
      "化": 231,
      "午": 232,
      "合": 233,
      "和": 234,
      "図": 235,
      "多": 236,
      "夜": 237,
      "大": 238,
      "套": 239,
      "妙": 240,
      "学": 241,
      "定": 242,
      "对": 243,
      "将": 244,
      "工": 245,
      "带": 246,
      "并": 247,
      "建": 248,
      "强": 249,
      "当": 250,
      "後": 251,
      "您": 252,
      "惊": 253,
      "戏": 254,
      "我": 255,
      "提": 256,
      "效": 257,
      "整": 258,
      "文": 259,
      "料": 260,
      "日": 261,
      "明": 262,
      "時": 263,
      "曜": 264,
      "更": 265,
      "書": 266,
      "月": 267,
      "机": 268,
      "来": 269,
      "正": 270,
      "此": 271,
      "段": 272,
      "气": 273,
      "注": 274,
      "流": 275,
      "测": 276,
      "游": 277,
      "火": 278,
      "灵": 279,
      "牛": 280,
      "生": 281,
      "画": 282,
      "的": 283,
      "益": 284,
      "相": 285,
      "私": 286,
      "程": 287,
      "给": 288,
      "美": 289,
      "能": 290,
      "艳": 291,
      "落": 292,
      "蚠": 293,
      "行": 294,
      "要": 295,
      "規": 296,
      "試": 297,
      "話": 298,
      "试": 299,
      "資": 300,
      "超": 301,
      "软": 302,
      "输": 303,
      "限": 304,
      "需": 305,
      "非": 306,
      "館": 307,
      "馬": 308,
      "験": 309,
      "骨": 310,
      "骼": 311,
      "高": 312,
      "鹿": 313,
      "齐": 314,
      "，": 315,
      "．": 316,
      "ｶ": 317,
      "ｷ": 318,
      "ｸ": 319,
      "ｹ": 320,
      "ｺ": 321,
      "ｻ": 322,
      "ｼ": 323,
      "ｽ": 324,
      "ｾ": 325,
      "ｿ": 326,
      "ﾞ": 327,
      "�": 328,
      "##t": 329,
      "##e": 330,
      "##m": 331,
      "##p": 332,
      "##S": 333,
      "##a": 334,
      "##D": 335,
      "##4": 336,
      "##z": 337,
      "##c": 338,
      "##x": 339,
      "##v": 340,
      "##1": 341,
      "##o": 342,
      "##s": 343,
      "##r": 344,
      "##N": 345,
      "##u": 346,
      "##I": 347,
      "##n": 348,
      "##d": 349,
      "##h": 350,
      "##P": 351,
      "##f": 352,
      "##i": 353,
      "##g": 354,
      "##J": 355,
      "##M": 356,
      "##W": 357,
      "##G": 358,
      "##T": 359,
      "##Y": 360,
      "##E": 361,
      "##_": 362,
      "##b": 363,
      "##C": 364,
      "##l": 365,
      "##O": 366,
      "##j": 367,
      "##k": 368,
      "##y": 369,
      "##2": 370,
      "##7": 371,
      "##q": 372,
      "##5": 373,
      "##Z": 374,
      "##L": 375,
      "##6": 376,
      "##w": 377,
      "##3": 378,
      "##V": 379,
      "##K": 380,
      "##Q": 381,
      "##0": 382,
      "##F": 383,
      "##A": 384,
      "##U": 385,
      "##R": 386,
      "##\\": 387,
      "##\"": 388,
      "##.": 389,
      "##{": 390,
      "##}": 391,
      "##]": 392,
      "##/": 393,
      "##[": 394,
      "##X": 395,
      "##8": 396,
      "##H": 397,
      "##B": 398,
      "##9": 399,
      "##+": 400,
      "##)": 401,
      "##,": 402,
      "##-": 403,
      "##;": 404,
      "##$": 405,
      "##'": 406,
      "##~": 407,
      "##<": 408,
      "##%": 409,
      "##(": 410,
      "##^": 411,
      "##|": 412,
      "##?": 413,
      "##*": 414,
      "##>": 415,
      "##:": 416,
      "##!": 417,
      "##=": 418,
      "##@": 419,
      "##&": 420,
      "###": 421,
      "##火": 422,
      "##曜": 423,
      "##日": 424,
      "##ı": 425,
      "##ッ": 426,
      "##フ": 427,
      "##ァ": 428,
      "##ー": 429,
      "##の": 430,
      "##正": 431,
      "##規": 432,
      "##化": 433,
      "##テ": 434,
      "##ス": 435,
      "##ト": 436,
      "##し": 437,
      "##に": 438,
      "##ヒ": 439,
      "##№": 440,
      "##㈱": 441,
      "##㌘": 442,
      "##，": 443,
      "##画": 444,
      "##能": 445,
      "##给": 446,
      "##游": 447,
      "##戏": 448,
      "##带": 449,
      "##来": 450,
      "##生": 451,
      "##机": 452,
      "##和": 453,
      "##灵": 454,
      "##气": 455,
      "##㋐": 456,
      "##㋑": 457,
      "##㋒": 458,
      "##㋓": 459,
      "##㋔": 460,
      "##前": 461,
      "##ヽ": 462,
      "##か": 463,
      "##`": 464,
      "##о": 465,
      "##к": 466,
      "##у": 467,
      "##м": 468,
      "##е": 469,
      "##н": 470,
      "##т": 471,
      "##�": 472,
      "##а": 473,
      "##п": 474,
      "##试": 475,
      "##シ": 476,
      "##\u001b": 477,
      "##行": 478,
      "##時": 479,
      "##々": 480,
      "##く": 481,
      "##学": 482,
      "##試": 483,
      "##験": 484,
      "##落": 485,
      "##ち": 486,
      "##た": 487,
      "##ン": 488,
      "##セ": 489,
      "##イ": 490,
      "##ｷ": 491,
      "##ｸ": 492,
      "##ｹ": 493,
      "##ｺ": 494,
      "##ｻ": 495,
      "##ﾞ": 496,
      "##ｼ": 497,
      "##ｽ": 498,
      "##ｾ": 499,
      "##ｿ": 500,
      "##ᄀ": 501,
      "##ᅡ": 502,
      "##ᆨ": 503,
      "##書": 504,
      "##館": 505,
      "##て": 506,
      "##資": 507,
      "##料": 508,
      "##を": 509,
      "##コ": 510,
      "##ま": 511,
      "##鹿": 512,
      "##い": 513,
      "##Φ": 514,
      "##こ": 515,
      "##ろ": 516,
      "##ゝ": 517,
      "##需": 518,
      "##要": 519,
      "##一": 520,
      "##套": 521,
      "##牛": 522,
      "##您": 523,
      "##创": 524,
      "##建": 525,
      "##惊": 526,
      "##艳": 527,
      "##的": 528,
      "##骨": 529,
      "##骼": 530,
      "##动": 531,
      "##¡": 532,
      "##л": 533,
      "##я": 534,
      "##え": 535,
      "##る": 536,
      "##馬": 537,
      "##们": 538,
      "##相": 539,
      "##信": 540,
      "##作": 541,
      "##段": 542,
      "##美": 543,
      "##妙": 544,
      "##с": 545,
      "##ந": 546,
      "##เ": 547,
      "##ก": 548,
      "##ष": 549,
      "##ʷ": 550,
      "##क": 551,
      "##月": 552,
      "##对": 553,
      "##齐": 554,
      "##测": 555,
      "##中": 556,
      "##文": 557,
      "##输": 558,
      "##出": 559,
      "##⤷": 560,
      "##专": 561,
      "##注": 562,
      "##于": 563,
      "##此": 564,
      "##は": 565,
      "##制": 566,
      "##限": 567,
      "##超": 568,
      "##午": 569,
      "##後": 570,
      "##ナ": 571,
      "##夜": 572,
      "##ロ": 573,
      "##ハ": 574,
      "##先": 575,
      "##と": 576,
      "##話": 577,
      "##ß": 578,
      "##益": 579,
      "##ಠ": 580,
      "##工": 581,
      "##流": 582,
      "##程": 583,
      "##и": 584,
      "##定": 585,
      "##ィ": 586,
      "##予": 587,
      "##あ": 588,
      "##将": 589,
      "##其": 590,
      "##整": 591,
      "##合": 592,
      "##到": 593,
      "##当": 594,
      "##仅": 595,
      "##强": 596,
      "##大": 597,
      "##软": 598,
      "##件": 599,
      "##具": 600,
      "##ч": 601,
      "##ю": 602,
      "##щ": 603,
      "##х": 604,
      "##": 605,
      "##ᅩ": 606,
      "##ᄉ": 607,
      "##ᅥ": 608,
      "##ᆫ": 609,
      "##ᅮ": 610,
      "##ᄋ": 611,
      "##б": 612,
      "##供": 613,
      "##了": 614,
      "##高": 615,
      "##效": 616,
      "##ร": 617,
      "##ณ": 618,
      "##ar": 619,
      "var": 620,
      "##in": 621,
      "()": 622,
      "##ac": 623,
      "##on": 624,
      "##rin": 625,
      "##er": 626,
      "##et": 627,
      "ex": 628,
      "##ti": 629,
      "var1": 630,
      "##te": 631,
      "##rint": 632,
      "print": 633,
      "##al": 634,
      "##St": 635,
      "var2": 636,
      "##ce": 637,
      "##tion": 638,
      "##le": 639,
      "##Tr": 640,
      "var3": 641,
      "##ack": 642,
      "##ace": 643,
      "get": 644,
      "##Stack": 645,
      "##Trace": 646,
      "##StackTrace": 647,
      "printStackTrace": 648,
      "if": 649,
      "var4": 650,
      "##en": 651,
      "(\"": 652,
      "##es": 653,
      "##or": 654,
      "##an": 655,
      "##ut": 656,
      "\")": 657,
      "var5": 658,
      "##ption": 659,
      "##is": 660,
      "##um": 661,
      "##ro": 662,
      "##se": 663,
      "##ception": 664,
      "##tem": 665,
      "##xception": 666,
      "##ring": 667,
      "##ys": 668,
      "var6": 669,
      "##ystem": 670,
      "##ul": 671,
      "##at": 672,
      "out": 673,
      "##ln": 674,
      "println": 675,
      "St": 676,
      "System": 677,
      "##umm": 678,
      "##ummy": 679,
      "Dummy": 680,
      "Exception": 681,
      "##ss": 682,
      "##ent": 683,
      "String": 684,
      "##ec": 685,
      "##ur": 686,
      "##si": 687,
      "var7": 688,
      "##od": 689,
      "##mp": 690,
      "th": 691,
      "##ull": 692,
      "in": 693,
      "##am": 694,
      "var8": 695,
      "null": 696,
      "##ic": 697,
      "##st": 698,
      "##ate": 699,
      "fin": 700,
      "##el": 701,
      "##ist": 702,
      "##ri": 703,
      "())": 704,
      "##re": 705,
      "##ue": 706,
      "##ile": 707,
      "var9": 708,
      "final": 709,
      "##ert": 710,
      "##ub": 711,
      "##ect": 712,
      "##der": 713,
      "##In": 714,
      "##ag": 715,
      "##lic": 716,
      "##it": 717,
      "var10": 718,
      "##urn": 719,
      "##qu": 720,
      "##ab": 721,
      "##oc": 722,
      "##oo": 723,
      "##row": 724,
      "set": 725,
      "##eturn": 726,
      "##ew": 727,
      "##xt": 728,
      "##ment": 729,
      "##ation": 730,
      "return": 731,
      "##pp": 732,
      "el": 733,
      "##Con": 734,
      "else": 735,
      "##ssert": 736,
      "throw": 737,
      "##alse": 738,
      "##il": 739,
      "##ol": 740,
      "##able": 741,
      "##ed": 742,
      "##ch": 743,
      "##ject": 744,
      "false": 745,
      "##ublic": 746,
      "##ing": 747,
      "var11": 748,
      "##pe": 749,
      "Psi": 750,
      "##sion": 751,
      "##ance": 752,
      "##un": 753,
      "##dd": 754,
      "##id": 755,
      "##ame": 756,
      "##la": 757,
      "##est": 758,
      "new": 759,
      "##Re": 760,
      "##ong": 761,
      "##stance": 762,
      "==": 763,
      "is": 764,
      "assert": 765,
      "\",": 766,
      "##ay": 767,
      "this": 768,
      "##ype": 769,
      "re": 770,
      "##ter": 771,
      "##til": 772,
      "throws": 773,
      "##00": 774,
      "public": 775,
      "##ap": 776,
      "##lass": 777,
      "##ort": 778,
      "##om": 779,
      "var12": 780,
      "##lement": 781,
      "!=": 782,
      "##up": 783,
      "add": 784,
      "tr": 785,
      "##ction": 786,
      "##qual": 787,
      "))": 788,
      "##Util": 789,
      "##File": 790,
      "[]": 791,
      "##bject": 792,
      "##Pro": 793,
      "##ode": 794,
      "##as": 795,
      "##omp": 796,
      "##ig": 797,
      "##Name": 798,
      "##fer": 799,
      "##Id": 800,
      "##res": 801,
      "##end": 802,
      "var13": 803,
      "int": 804,
      "(),": 805,
      "##;}": 806,
      "long": 807,
      "##quals": 808,
      "##emp": 809,
      "##of": 810,
      "##Type": 811,
      "##nt": 812,
      "##ad": 813,
      "##lo": 814,
      "##age": 815,
      "##Element": 816,
      "##lean": 817,
      "instance": 818,
      "##erv": 819,
      "##rr": 820,
      "##oid": 821,
      "instanceof": 822,
      "##ang": 823,
      "##oolean": 824,
      "void": 825,
      "my": 826,
      "var14": 827,
      "##ir": 828,
      "con": 829,
      "##alue": 830,
      "List": 831,
      "##iz": 832,
      "##tor": 833,
      "100": 834,
      "##av": 835,
      "##Res": 836,
      "app": 837,
      "##ult": 838,
      "##Ex": 839,
      "##tt": 840,
      "temp": 841,
      "##odel": 842,
      "##ext": 843,
      "##Class": 844,
      "Object": 845,
      "var15": 846,
      "Dummy1": 847,
      "##and": 848,
      "Dummy2": 849,
      "##ice": 850,
      "##uil": 851,
      "##Conte": 852,
      "##ute": 853,
      "##ot": 854,
      "st": 855,
      "##List": 856,
      "true": 857,
      "boolean": 858,
      "append": 859,
      "##ath": 860,
      "##ry": 861,
      "().": 862,
      "##atch": 863,
      "##ve": 864,
      "##ted": 865,
      "##Exception": 866,
      "##nd": 867,
      "##ator": 868,
      "##ain": 869,
      "for": 870,
      "##ef": 871,
      "var16": 872,
      "##ata": 873,
      "##ervice": 874,
      "##ery": 875,
      "##eth": 876,
      "##ser": 877,
      "##ethod": 878,
      "##Set": 879,
      "##ava": 880,
      "##Comp": 881,
      "##reate": 882,
      "##To": 883,
      "##Par": 884,
      "##our": 885,
      "##ach": 886,
      "##uery": 887,
      "##ource": 888,
      "##ty": 889,
      "##Exp": 890,
      "##ase": 891,
      "var17": 892,
      "##ression": 893,
      "pro": 894,
      "##rib": 895,
      "##Context": 896,
      "##uilder": 897,
      "&&": 898,
      "##Imp": 899,
      "##Value": 900,
      "In": 901,
      "to": 902,
      "##let": 903,
      "create": 904,
      "##ey": 905,
      "##ribute": 906,
      "##ock": 907,
      "##rray": 908,
      "##Equals": 909,
      "##anag": 910,
      "##ttribute": 911,
      "##Ch": 912,
      "##Node": 913,
      "##ntry": 914,
      "com": 915,
      "##anager": 916,
      "##Model": 917,
      "var18": 918,
      "assertEquals": 919,
      "##\")": 920,
      "##if": 921,
      "##fo": 922,
      "##ten": 923,
      "##ow": 924,
      "##ex": 925,
      "##ache": 926,
      "##By": 927,
      "##per": 928,
      "##eld": 929,
      "##Manager": 930,
      "File": 931,
      "##ortal": 932,
      "##roup": 933,
      "##ield": 934,
      "##tain": 935,
      "##oun": 936,
      "##Expression": 937,
      "##sage": 938,
      "java": 939,
      "##quest": 940,
      "##fig": 941,
      "##String": 942,
      "##cess": 943,
      "##put": 944,
      "equals": 945,
      "##ence": 946,
      "##ize": 947,
      "##ocal": 948,
      "var19": 949,
      "ch": 950,
      "##Impl": 951,
      "##ers": 952,
      ");": 953,
      "res": 954,
      "##tory": 955,
      "##cri": 956,
      "##us": 957,
      "##Instance": 958,
      "li": 959,
      "##Service": 960,
      "##og": 961,
      "##im": 962,
      "##ession": 963,
      "##tic": 964,
      "put": 965,
      "##ger": 966,
      "##Data": 967,
      "##lection": 968,
      "##En": 969,
      "Pro": 970,
      "##out": 971,
      "par": 972,
      "##feray": 973,
      "sup": 974,
      "##ash": 975,
      "##ler": 976,
      "##essage": 977,
      "getA": 978,
      "##ure": 979,
      "##Se": 980,
      "##mo": 981,
      "##isten": 982,
      "##ference": 983,
      "liferay": 984,
      "var20": 985,
      "();}": 986,
      "##Result": 987,
      "##Method": 988,
      "##Map": 989,
      "##eck": 990,
      "##ange": 991,
      "##Test": 992,
      "catch": 993,
      "##olum": 994,
      "##ader": 995,
      "<?": 996,
      "##ument": 997,
      "Con": 998,
      "##olumn": 999,
      "##ial": 1000,
      "Map": 1001,
      "##Key": 1002,
      "##vent": 1003,
      "##Path": 1004,
      "##itor": 1005,
      "##Info": 1006,
      "##Entry": 1007,
      "##amet": 1008,
      "super": 1009,
      "##escri": 1010,
      "##Po": 1011,
      "##ule": 1012,
      "##ak": 1013,
      "var21": 1014,
      "##Builder": 1015,
      "##Cache": 1016,
      ");}": 1017,
      "##ual": 1018,
      "##art": 1019,
      "||": 1020,
      "),": 1021,
      "##yte": 1022,
      "##Th": 1023,
      "##Action": 1024,
      "##Text": 1025,
      "##rg": 1026,
      "##Of": 1027,
      "##ll": 1028,
      "##Request": 1029,
      "##em": 1030,
      "##orm": 1031,
      ").": 1032,
      "##actory": 1033,
      "##figur": 1034,
      "##ask": 1035,
      "##rite": 1036,
      "();": 1037,
      "##ep": 1038,
      "##cted": 1039,
      "##Group": 1040,
      "##mpty": 1041,
      "try": 1042,
      "##onent": 1043,
      "##dex": 1044,
      "case": 1045,
      "Array": 1046,
      "##th": 1047,
      "getName": 1048,
      "##ern": 1049,
      "##uc": 1050,
      "sb": 1051,
      "##ting": 1052,
      "##ug": 1053,
      "do": 1054,
      "portal": 1055,
      "##igh": 1056,
      "getD": 1057,
      "##app": 1058,
      "##gist": 1059,
      "lang": 1060,
      "##riv": 1061,
      "##rror": 1062,
      "##und": 1063,
      "var22": 1064,
      "##ory": 1065,
      "##erty": 1066,
      "##perty": 1067,
      "##reak": 1068,
      "##eb": 1069,
      "##li": 1070,
      "##lock": 1071,
      "##Event": 1072,
      "getC": 1073,
      "getS": 1074,
      "##rder": 1075,
      "##ollection": 1076,
      "##ine": 1077,
      "##ith": 1078,
      "##Factory": 1079,
      "##ary": 1080,
      "##ans": 1081,
      "Class": 1082,
      "##uf": 1083,
      "##ream": 1084,
      "##ditor": 1085,
      "##Reference": 1086,
      "##Field": 1087,
      "getP": 1088,
      "\"))": 1089,
      "##yn": 1090,
      "##ust": 1091,
      "##move": 1092,
      "size": 1093,
      "PsiElement": 1094,
      "##ken": 1095,
      "ArrayList": 1096,
      "##ion": 1097,
      "##ayout": 1098,
      "##Paramet": 1099,
      "##Query": 1100,
      "Assert": 1101,
      "##figuration": 1102,
      "getL": 1103,
      "##ault": 1104,
      "sh": 1105,
      "var23": 1106,
      "##ptor": 1107,
      "value": 1108,
      "##efault": 1109,
      "##po": 1110,
      "##rivate": 1111,
      "##alid": 1112,
      "##oot": 1113,
      "##pon": 1114,
      "##odule": 1115,
      "##ortlet": 1116,
      "getInstance": 1117,
      "test": 1118,
      "##act": 1119,
      "##ersion": 1120,
      "##ee": 1121,
      "##all": 1122,
      "##tual": 1123,
      "##Descri": 1124,
      "##ress": 1125,
      "break": 1126,
      "remove": 1127,
      "##Empty": 1128,
      "##ean": 1129,
      "##tif": 1130,
      "write": 1131,
      "##ount": 1132,
      "##public": 1133,
      "##State": 1134,
      "##ponse": 1135,
      "##Hand": 1136,
      "un": 1137,
      "##str": 1138,
      "##ml": 1139,
      "private": 1140,
      "((": 1141,
      "##ifi": 1142,
      "contain": 1143,
      "##lication": 1144,
      "##pd": 1145,
      ";}": 1146,
      "<?>": 1147,
      "##Null": 1148,
      "##tings": 1149,
      "##User": 1150,
      "##irtual": 1151,
      "##ly": 1152,
      "##rom": 1153,
      "##\",": 1154,
      "##ocument": 1155,
      "##Attribute": 1156,
      "##arch": 1157,
      "##ition": 1158,
      "Set": 1159,
      "file": 1160,
      "##ard": 1161,
      "##teger": 1162,
      "getM": 1163,
      "Long": 1164,
      "##ection": 1165,
      "##tity": 1166,
      "##Sta": 1167,
      "##ore": 1168,
      "##Component": 1169,
      "##not": 1170,
      "read": 1171,
      "isEmpty": 1172,
      "##pdate": 1173,
      "##op": 1174,
      "var24": 1175,
      "##erm": 1176,
      "##irtualFile": 1177,
      "##True": 1178,
      "##ail": 1179,
      "byte": 1180,
      "Collection": 1181,
      "##ild": 1182,
      "##Stat": 1183,
      "comp": 1184,
      "wh": 1185,
      "##Dir": 1186,
      "##Object": 1187,
      "name": 1188,
      "##Stream": 1189,
      "##arator": 1190,
      "sta": 1191,
      "##uffer": 1192,
      "##Local": 1193,
      "##ity": 1194,
      "assertTrue": 1195,
      "##Ac": 1196,
      "##ernel": 1197,
      "var25": 1198,
      "##istener": 1199,
      "##pt": 1200,
      "##Tree": 1201,
      "##tement": 1202,
      "##loat": 1203,
      "##Out": 1204,
      "Gr": 1205,
      "##lose": 1206,
      "##ime": 1207,
      "##ttp": 1208,
      "kernel": 1209,
      "##pplication": 1210,
      "##ind": 1211,
      "##Bund": 1212,
      "##ord": 1213,
      "##Parameter": 1214,
      "##Project": 1215,
      "##read": 1216,
      "##tected": 1217,
      "check": 1218,
      "##Property": 1219,
      "run": 1220,
      "has": 1221,
      "##ib": 1222,
      "Py": 1223,
      "contains": 1224,
      "##fs": 1225,
      "Integer": 1226,
      "find": 1227,
      "##get": 1228,
      "##int": 1229,
      "##older": 1230,
      "##vi": 1231,
      "Th": 1232,
      "static": 1233,
      "##Bean": 1234,
      "##Content": 1235,
      "toString": 1236,
      "##Resource": 1237,
      "##urr": 1238,
      "Hash": 1239,
      "##Handler": 1240,
      "##uild": 1241,
      "()))": 1242,
      "{@": 1243,
      "attribute": 1244,
      "##ast": 1245,
      "list": 1246,
      "##ties": 1247,
      "Comp": 1248,
      "VirtualFile": 1249,
      "##pl": 1250,
      "##efin": 1251,
      "##ber": 1252,
      "##})": 1253,
      "##elet": 1254,
      "##With": 1255,
      "##OG": 1256,
      "exec": 1257,
      "##lient": 1258,
      "##ign": 1259,
      "##Descriptor": 1260,
      "var26": 1261,
      "##Parent": 1262,
      "##Array": 1263,
      "##Listener": 1264,
      "close": 1265,
      "##Comparator": 1266,
      "exp": 1267,
      "##rderBy": 1268,
      "not": 1269,
      "##tend": 1270,
      "##Response": 1271,
      "##gth": 1272,
      "Path": 1273,
      "##Statement": 1274,
      "query": 1275,
      "Project": 1276,
      "##ver": 1277,
      "builder": 1278,
      "##Token": 1279,
      "##Sh": 1280,
      "##ilter": 1281,
      "##Session": 1282,
      "LOG": 1283,
      "##ength": 1284,
      "getClass": 1285,
      ">>": 1286,
      "##nnot": 1287,
      "column": 1288,
      "##eo": 1289,
      "##late": 1290,
      "##abled": 1291,
      "float": 1292,
      "model": 1293,
      "start": 1294,
      "##ool": 1295,
      "##terator": 1296,
      "Ex": 1297,
      "##Output": 1298,
      "##Add": 1299,
      "##alu": 1300,
      "##andom": 1301,
      "##are": 1302,
      "##Task": 1303,
      "##Table": 1304,
      "conte": 1305,
      "##That": 1306,
      "next": 1307,
      "##ink": 1308,
      "##Utils": 1309,
      "##Version": 1310,
      "++": 1311,
      "##gin": 1312,
      "##urrent": 1313,
      "##Block": 1314,
      "en": 1315,
      "assertThat": 1316,
      "##Root": 1317,
      "##omm": 1318,
      "##ebug": 1319,
      "##ervlet": 1320,
      "se": 1321,
      "##At": 1322,
      "log": 1323,
      "##Source": 1324,
      "##erial": 1325,
      "##..": 1326,
      "Portal": 1327,
      "##gister": 1328,
      "PsiClass": 1329,
      "##tainer": 1330,
      "##ook": 1331,
      "##All": 1332,
      "##rderByComparator": 1333,
      "protected": 1334,
      "##arget": 1335,
      "##unn": 1336,
      "type": 1337,
      "##uble": 1338,
      "##Index": 1339,
      "##Un": 1340,
      "##Configuration": 1341,
      "##action": 1342,
      "Ch": 1343,
      "##Status": 1344,
      "##form": 1345,
      "var28": 1346,
      "##Settings": 1347,
      "parse": 1348,
      "Res": 1349,
      "##odifi": 1350,
      "exception": 1351,
      "while": 1352,
      "var27": 1353,
      "##Trans": 1354,
      "##ener": 1355,
      "##Not": 1356,
      "##ob": 1357,
      "##vider": 1358,
      "##Sc": 1359,
      "field": 1360,
      "##Defin": 1361,
      "##derCache": 1362,
      "##Enabled": 1363,
      "##rim": 1364,
      "##Int": 1365,
      "##nnotation": 1366,
      "error": 1367,
      "##Date": 1368,
      "##tive": 1369,
      "<>": 1370,
      "##perties": 1371,
      "##tern": 1372,
      "##uct": 1373,
      "##apper": 1374,
      "finderCache": 1375,
      "##Met": 1376,
      "##Code": 1377,
      "##log": 1378,
      "result": 1379,
      "##Pan": 1380,
      "Query": 1381,
      "extend": 1382,
      "##ected": 1383,
      "##any": 1384,
      "##Message": 1385,
      "##ari": 1386,
      "##ModelImpl": 1387,
      "getValue": 1388,
      "##ight": 1389,
      "##For": 1390,
      "index": 1391,
      "##unction": 1392,
      "##iew": 1393,
      "class": 1394,
      "getO": 1395,
      "sub": 1396,
      "Re": 1397,
      "attributes": 1398,
      "##ectory": 1399,
      "##elete": 1400,
      "##aleo": 1401,
      "extends": 1402,
      "##ip": 1403,
      "Local": 1404,
      "register": 1405,
      "##Time": 1406,
      "be": 1407,
      "##lust": 1408,
      "##Buffer": 1409,
      "##luster": 1410,
      "...": 1411,
      "OrderByComparator": 1412,
      "##ix": 1413,
      "##lec": 1414,
      "##And": 1415,
      "##riter": 1416,
      "##Dis": 1417,
      "##peration": 1418,
      "##erializ": 1419,
      "##cessor": 1420,
      "pre": 1421,
      "PsiMethod": 1422,
      "##Count": 1423,
      "message": 1424,
      "##Input": 1425,
      "Method": 1426,
      "##ames": 1427,
      "##istence": 1428,
      "update": 1429,
      "##ark": 1430,
      "##Definition": 1431,
      "##emplate": 1432,
      "execute": 1433,
      "##Editor": 1434,
      "##Str": 1435,
      "##olve": 1436,
      "##red": 1437,
      "util": 1438,
      "##ission": 1439,
      "getF": 1440,
      "element": 1441,
      "##sset": 1442,
      "##Provider": 1443,
      "##rgument": 1444,
      "##Lo": 1445,
      "##Child": 1446,
      "\");}": 1447,
      "##Item": 1448,
      "##leg": 1449,
      "##pace": 1450,
      "##LocalService": 1451,
      "##ound": 1452,
      "##alues": 1453,
      "info": 1454,
      "equal": 1455,
      "##ision": 1456,
      "##pen": 1457,
      "##System": 1458,
      "##ateg": 1459,
      "+=": 1460,
      "##ermission": 1461,
      "##amic": 1462,
      "##ynamic": 1463,
      "as": 1464,
      "##Form": 1465,
      "getParent": 1466,
      "var29": 1467,
      "##ocation": 1468,
      "##RL": 1469,
      "build": 1470,
      "##Call": 1471,
      "context": 1472,
      "##Tag": 1473,
      "##From": 1474,
      "##ole": 1475,
      "##ope": 1476,
      "##Entity": 1477,
      "##tial": 1478,
      "length": 1479,
      "PortalException": 1480,
      "Par": 1481,
      "10": 1482,
      "##Range": 1483,
      "method": 1484,
      "session": 1485,
      "Service": 1486,
      "##air": 1487,
      "##ariable": 1488,
      "ac": 1489,
      "##ER": 1490,
      "##de": 1491,
      "##epend": 1492,
      "node": 1493,
      "##ge": 1494,
      "on": 1495,
      "##Address": 1496,
      "of": 1497,
      "Model": 1498,
      "process": 1499,
      "##He": 1500,
      "##utable": 1501,
      "##lected": 1502,
      "Http": 1503,
      "Text": 1504,
      "request": 1505,
      "var30": 1506,
      "##Layout": 1507,
      "##Ar": 1508,
      "delete": 1509,
      "Byte": 1510,
      "service": 1511,
      "##fset": 1512,
      "##umber": 1513,
      "##cs": 1514,
      "##sp": 1515,
      "\"),": 1516,
      "##sitory": 1517,
      "user": 1518,
      "Type": 1519,
      "Test": 1520,
      "Element": 1521,
      "##View": 1522,
      "##enc": 1523,
      "##port": 1524,
      "##ax": 1525,
      "##use": 1526,
      "##ork": 1527,
      "org": 1528,
      "##Error": 1529,
      "##sh": 1530,
      "##Panel": 1531,
      "equalTo": 1532,
      "cont": 1533,
      "getB": 1534,
      "foo": 1535,
      "action": 1536,
      "##ree": 1537,
      "##mple": 1538,
      "##Bundle": 1539,
      "##lear": 1540,
      "##con": 1541,
      "##Wr": 1542,
      "##Servlet": 1543,
      "##Template": 1544,
      "char": 1545,
      "portlet": 1546,
      "##Search": 1547,
      "##ke": 1548,
      "getR": 1549,
      "##GroupId": 1550,
      "Sh": 1551,
      "end": 1552,
      "getCon": 1553,
      "##apping": 1554,
      "##Variable": 1555,
      "##ender": 1556,
      "##ov": 1557,
      "##TestUtil": 1558,
      "entry": 1559,
      "##ner": 1560,
      "><": 1561,
      "##sition": 1562,
      "##own": 1563,
      "\").": 1564,
      "from": 1565,
      "Xml": 1566,
      "##opy": 1567,
      "getText": 1568,
      "##ptions": 1569,
      "##Vis": 1570,
      "##Check": 1571,
      "User": 1572,
      "group": 1573,
      "##Prot": 1574,
      "##Long": 1575,
      "])": 1576,
      "##ication": 1577,
      "##Directory": 1578,
      "double": 1579,
      "text": 1580,
      "##Regist": 1581,
      "##Loader": 1582,
      "##yp": 1583,
      "##ector": 1584,
      "##anyId": 1585,
      "Un": 1586,
      "##Offset": 1587,
      "Module": 1588,
      "##Thread": 1589,
      "An": 1590,
      "Action": 1591,
      "getType": 1592,
      "##ost": 1593,
      "##DM": 1594,
      "PsiType": 1595,
      "Data": 1596,
      "##low": 1597,
      "##Target": 1598,
      "##unnable": 1599,
      "##ON": 1600,
      "##Byte": 1601,
      "##lay": 1602,
      "var31": 1603,
      "getFile": 1604,
      "##Reader": 1605,
      "clear": 1606,
      "##Bundler": 1607,
      "##On": 1608,
      "StringBundler": 1609,
      "inv": 1610,
      "##Hash": 1611,
      "##ersistence": 1612,
      "##arn": 1613,
      "##one": 1614,
      ">(": 1615,
      "HashMap": 1616,
      "##otif": 1617,
      "##qui": 1618,
      "##ated": 1619,
      "##NotNull": 1620,
      "+\"": 1621,
      "##atcher": 1622,
      "##Names": 1623,
      "##ized": 1624,
      "##ueue": 1625,
      "##Transaction": 1626,
      "##ourn": 1627,
      "##Rec": 1628,
      "##ournal": 1629,
      "##olor": 1630,
      "##resent": 1631,
      "##loy": 1632,
      "##itial": 1633,
      "##ependenc": 1634,
      "##Argument": 1635,
      "getProject": 1636,
      "##ssign": 1637,
      "##AT": 1638,
      "##ucture": 1639,
      "Session": 1640,
      "var32": 1641,
      "##Pre": 1642,
      "##uage": 1643,
      "##vert": 1644,
      "##rl": 1645,
      "##Comm": 1646,
      "##Su": 1647,
      "##rigin": 1648,
      "##bo": 1649,
      "Ref": 1650,
      "##Function": 1651,
      "##Filter": 1652,
      "Application": 1653,
      "En": 1654,
      "exist": 1655,
      "##place": 1656,
      "path": 1657,
      "##ighl": 1658,
      "open": 1659,
      "##mit": 1660,
      "##chem": 1661,
      "##nection": 1662,
      "##Line": 1663,
      "##ier": 1664,
      "##rimary": 1665,
      "##adata": 1666,
      "_log": 1667,
      "key": 1668,
      "##erver": 1669,
      "##aData": 1670,
      "id": 1671,
      "##ST": 1672,
      "##rol": 1673,
      "##tim": 1674,
      "##vision": 1675,
      "##}}": 1676,
      "##Start": 1677,
      "Serializ": 1678,
      "##Hel": 1679,
      "##xy": 1680,
      "##odes": 1681,
      "##Size": 1682,
      "Resource": 1683,
      ")))": 1684,
      "##sed": 1685,
      "##lect": 1686,
      "##tiv": 1687,
      "##End": 1688,
      "Java": 1689,
      "##Selected": 1690,
      "##Log": 1691,
      "Date": 1692,
      "Boolean": 1693,
      "##pository": 1694,
      "PsiFile": 1695,
      "##Disp": 1696,
      "##pro": 1697,
      "vis": 1698,
      "##Change": 1699,
      "##aint": 1700,
      "##anguage": 1701,
      "getUser": 1702,
      "##bstr": 1703,
      "##bstract": 1704,
      "##Module": 1705,
      "default": 1706,
      "##Column": 1707,
      "##Inter": 1708,
      "##tempt": 1709,
      "##riginal": 1710,
      "##eploy": 1711,
      "Ind": 1712,
      "Editor": 1713,
      "##ass": 1714,
      "##ackage": 1715,
      "##sWith": 1716,
      "##ite": 1717,
      "Runnable": 1718,
      "Exp": 1719,
      "logger": 1720,
      "##Scope": 1721,
      "##ynamicQuery": 1722,
      "StringUtil": 1723,
      "##inue": 1724,
      "##Pos": 1725,
      "##uid": 1726,
      "##URL": 1727,
      "##ticle": 1728,
      "##rowable": 1729,
      "##Permission": 1730,
      "##Le": 1731,
      "current": 1732,
      "##\\\"": 1733,
      "Collections": 1734,
      "##CompanyId": 1735,
      "##imple": 1736,
      "var33": 1737,
      "##ugin": 1738,
      "##utor": 1739,
      "##oll": 1740,
      "##ies": 1741,
      "Default": 1742,
      "IO": 1743,
      "prep": 1744,
      "##ategory": 1745,
      "##+\"": 1746,
      "!(": 1747,
      "##lugin": 1748,
      "continue": 1749,
      "Portlet": 1750,
      "##irst": 1751,
      "debug": 1752,
      "##Helper": 1753,
      "##Ref": 1754,
      "##ync": 1755,
      "form": 1756,
      "##Or": 1757,
      "##lleg": 1758,
      "##Document": 1759,
      "##llegal": 1760,
      "##alend": 1761,
      "##ID": 1762,
      "##alendar": 1763,
      "##ill": 1764,
      "Tr": 1765,
      "map": 1766,
      "##Values": 1767,
      "Serializable": 1768,
      "##Folder": 1769,
      "bt": 1770,
      "());": 1771,
      "##An": 1772,
      "##As": 1773,
      "##oad": 1774,
      "##Structure": 1775,
      "random": 1776,
      "Throwable": 1777,
      "resolve": 1778,
      "client": 1779,
      "##oap": 1780,
      "##vel": 1781,
      "##Revision": 1782,
      "##indow": 1783,
      "##dm": 1784,
      "an": 1785,
      "prepare": 1786,
      "##ps": 1787,
      "##cl": 1788,
      "##gress": 1789,
      "##sg": 1790,
      "ModelNode": 1791,
      "##Properties": 1792,
      "getKey": 1793,
      "Illegal": 1794,
      "with": 1795,
      "=\")": 1796,
      "##Container": 1797,
      "##mm": 1798,
      "Configuration": 1799,
      "Abstract": 1800,
      ">=": 1801,
      "##word": 1802,
      "##0000": 1803,
      "\\\"": 1804,
      "##aw": 1805,
      "##ustom": 1806,
      "##ell": 1807,
      "##Modifi": 1808,
      "var34": 1809,
      "##Update": 1810,
      "##Mem": 1811,
      "##ages": 1812,
      "iterator": 1813,
      "##oul": 1814,
      "##aven": 1815,
      "getAttribute": 1816,
      "dis": 1817,
      "Locale": 1818,
      "##ud": 1819,
      "##ould": 1820,
      "##ant": 1821,
      "Pair": 1822,
      "##ypes": 1823,
      "##Next": 1824,
      "##tension": 1825,
      "DDM": 1826,
      "##plit": 1827,
      "##ization": 1828,
      "##oke": 1829,
      "##Operation": 1830,
      "Random": 1831,
      "Node": 1832,
      "##Config": 1833,
      ">()": 1834,
      "HashSet": 1835,
      "format": 1836,
      "##Wrapper": 1837,
      "##tifact": 1838,
      "##back": 1839,
      "##Processor": 1840,
      "##entif": 1841,
      "##ookup": 1842,
      "finally": 1843,
      "PsiExpression": 1844,
      "object": 1845,
      "##mb": 1846,
      "##abel": 1847,
      "##LE": 1848,
      "##ulti": 1849,
      "Task": 1850,
      "##Client": 1851,
      "##iled": 1852,
      "('": 1853,
      "##otification": 1854,
      "##Exec": 1855,
      "data": 1856,
      "##Description": 1857,
      "##ish": 1858,
      "##ocial": 1859,
      "##rary": 1860,
      "##Annotation": 1861,
      "##dk": 1862,
      "##Sub": 1863,
      "##son": 1864,
      "Container": 1865,
      "Index": 1866,
      "##ounter": 1867,
      "##Valid": 1868,
      "##App": 1869,
      "IOException": 1870,
      "##ric": 1871,
      "##oin": 1872,
      "replace": 1873,
      "##IN": 1874,
      "##Get": 1875,
      "##Attempt": 1876,
      "##ution": 1877,
      "##ched": 1878,
      "##aret": 1879,
      "##Selection": 1880,
      "Se": 1881,
      "0x": 1882,
      "##mage": 1883,
      "##entifier": 1884,
      "##trol": 1885,
      "##ki": 1886,
      "<=": 1887,
      "hand": 1888,
      "invoke": 1889,
      "doTest": 1890,
      "##attern": 1891,
      "(\",": 1892,
      "##ody": 1893,
      "##Assign": 1894,
      "Layout": 1895,
      "##ternal": 1896,
      "##ays": 1897,
      "StringBuilder": 1898,
      "fail": 1899,
      "setC": 1900,
      "##ox": 1901,
      "##string": 1902,
      "the": 1903,
      "##itle": 1904,
      "##ush": 1905,
      "getElement": 1906,
      "##tr": 1907,
      "msg": 1908,
      "##ran": 1909,
      "##Java": 1910,
      "PsiReference": 1911,
      "##Chang": 1912,
      "##MetaData": 1913,
      "##Format": 1914,
      "ref": 1915,
      "valueOf": 1916,
      "##af": 1917,
      "##Gener": 1918,
      "##eployment": 1919,
      "##sum": 1920,
      "##QL": 1921,
      "visit": 1922,
      "##Dec": 1923,
      "##--": 1924,
      "var35": 1925,
      "Document": 1926,
      "##ranch": 1927,
      "##ble": 1928,
      "##Import": 1929,
      "##mote": 1930,
      "##Position": 1931,
      "##mmutable": 1932,
      "##ependency": 1933,
      "conf": 1934,
      "##Fr": 1935,
      "##orted": 1936,
      "Tree": 1937,
      ");}}": 1938,
      "##Options": 1939,
      "##Constr": 1940,
      "##dition": 1941,
      "Arr": 1942,
      "assertF": 1943,
      "##tivity": 1944,
      "##Uuid": 1945,
      "##pec": 1946,
      "##izer": 1947,
      "##inder": 1948,
      "dir": 1949,
      "##spection": 1950,
      "DL": 1951,
      "parent": 1952,
      "##time": 1953,
      "match": 1954,
      "##sEntry": 1955,
      "Key": 1956,
      "cluster": 1957,
      "##point": 1958,
      "##Parameters": 1959,
      "##Writer": 1960,
      "##gn": 1961,
      "assertNotNull": 1962,
      "##Registry": 1963,
      "getId": 1964,
      "##iv": 1965,
      "##rimaryKey": 1966,
      "##Row": 1967,
      "AnAction": 1968,
      "##New": 1969,
      "(!": 1970,
      "##lob": 1971,
      "##round": 1972,
      "</": 1973,
      "##Tool": 1974,
      "##lar": 1975,
      "response": 1976,
      "Mock": 1977,
      "##pping": 1978,
      "##eys": 1979,
      "12": 1980,
      "##Mapping": 1981,
      "##ive": 1982,
      "##ualifi": 1983,
      "count": 1984,
      "##ann": 1985,
      "##set": 1986,
      "##Base": 1987,
      "commit": 1988,
      "layout": 1989,
      "##ron": 1990,
      "##ql": 1991,
      "root": 1992,
      "removeResult": 1993,
      "No": 1994,
      "##ave": 1995,
      "##Link": 1996,
      "##Category": 1997,
      "##fix": 1998,
      "isD": 1999,
      "##ialog": 2000,
      "##ify": 2001,
      "##its": 2002,
      "##nap": 2003,
      "##Psi": 2004,
      "\"/": 2005,
      "Asset": 2006,
      "##ren": 2007,
      "##Ind": 2008,
      "##ible": 2009,
      "##ton": 2010,
      "(\"<": 2011,
      "##gg": 2012,
      "substring": 2013,
      "getGroupId": 2014,
      "##Return": 2015,
      "or": 2016,
      "##Repository": 2017,
      "assertFalse": 2018,
      "##Boolean": 2019,
      "##resentation": 2020,
      "##Display": 2021,
      "stat": 2022,
      "Immutable": 2023,
      "warn": 2024,
      "##ess": 2025,
      "Math": 2026,
      "##FileEntry": 2027,
      "##utton": 2028,
      "Valid": 2029,
      "##ait": 2030,
      "##Article": 2031,
      "##xtern": 2032,
      "row": 2033,
      "##iff": 2034,
      "##ailed": 2035,
      "##valid": 2036,
      "##erform": 2037,
      "Link": 2038,
      "can": 2039,
      "##Page": 2040,
      "##Bytes": 2041,
      "getPath": 2042,
      "ap": 2043,
      "##iki": 2044,
      "ServiceContext": 2045,
      "##ameter": 2046,
      "getResult": 2047,
      "(\"/": 2048,
      "##xternal": 2049,
      "##ocol": 2050,
      "##napsh": 2051,
      "Vcs": 2052,
      "##Record": 2053,
      "getOriginal": 2054,
      "##cript": 2055,
      "##rid": 2056,
      "##ialect": 2057,
      "##Header": 2058,
      "xml": 2059,
      "##Persistence": 2060,
      "##annel": 2061,
      "##Proxy": 2062,
      "##Command": 2063,
      "##Resol": 2064,
      "openSession": 2065,
      "##ket": 2066,
      "##Application": 2067,
      "##Mode": 2068,
      "editor": 2069,
      "RandomTestUtil": 2070,
      "Maven": 2071,
      "##Icon": 2072,
      "hash": 2073,
      "child": 2074,
      "requi": 2075,
      "##enderer": 2076,
      "all": 2077,
      "##Attributes": 2078,
      "##que": 2079,
      "##Files": 2080,
      "].": 2081,
      "##ServletRequest": 2082,
      "Entry": 2083,
      "To": 2084,
      "());}": 2085,
      "##Parser": 2086,
      "MB": 2087,
      "##ground": 2088,
      "em": 2089,
      "str": 2090,
      "##ovy": 2091,
      "##Level": 2092,
      "Char": 2093,
      "##roovy": 2094,
      "##ynch": 2095,
      "##Ed": 2096,
      "config": 2097,
      "##ld": 2098,
      "##az": 2099,
      "##napshot": 2100,
      "show": 2101,
      "##led": 2102,
      "load": 2103,
      "##fter": 2104,
      "##ouble": 2105,
      "##ont": 2106,
      "Comm": 2107,
      "sc": 2108,
      "##ative": 2109,
      "##Stats": 2110,
      "##ibrary": 2111,
      "cache": 2112,
      "##If": 2113,
      "resource": 2114,
      "##Process": 2115,
      "##ecked": 2116,
      "getApplication": 2117,
      "empty": 2118,
      "##ynchron": 2119,
      "state": 2120,
      "##Access": 2121,
      "addAll": 2122,
      "##licy": 2123,
      "##Com": 2124,
      "var36": 2125,
      "Linked": 2126,
      "##aph": 2127,
      "##uth": 2128,
      "##outing": 2129,
      "##Case": 2130,
      "reader": 2131,
      "##Activity": 2132,
      "copy": 2133,
      "descri": 2134,
      "Thread": 2135,
      "init": 2136,
      "##RI": 2137,
      "##file": 2138,
      "##Queue": 2139,
      "##eme": 2140,
      "Block": 2141,
      "##Qu": 2142,
      "trans": 2143,
      "##Holder": 2144,
      "##table": 2145,
      "search": 2146,
      "##Read": 2147,
      "##yle": 2148,
      "##Notification": 2149,
      "Trans": 2150,
      "##ature": 2151,
      "##erge": 2152,
      "##ices": 2153,
      "],": 2154,
      "##etch": 2155,
      "##Branch": 2156,
      "##Ad": 2157,
      "Arrays": 2158,
      ">)": 2159,
      "##Nodes": 2160,
      "##resh": 2161,
      "##Initial": 2162,
      "Kaleo": 2163,
      "##ade": 2164,
      "##Url": 2165,
      "entity": 2166,
      "##Http": 2167,
      "##amed": 2168,
      "\");": 2169,
      "Journal": 2170,
      "##Window": 2171,
      "##sing": 2172,
      "##val": 2173,
      "##bs": 2174,
      "document": 2175,
      "fs": 2176,
      "Column": 2177,
      "\".": 2178,
      "Iterator": 2179,
      "Token": 2180,
      "Validator": 2181,
      "##orage": 2182,
      ";}}": 2183,
      "My": 2184,
      "ByteBuffer": 2185,
      "expression": 2186,
      ">\")": 2187,
      "##letion": 2188,
      "Message": 2189,
      "event": 2190,
      "##checked": 2191,
      "##Types": 2192,
      "##Control": 2193,
      "##Identifier": 2194,
      "##Number": 2195,
      "getMessage": 2196,
      "##tent": 2197,
      "valid": 2198,
      "##ucket": 2199,
      "##ocket": 2200,
      "##RO": 2201,
      "##Doc": 2202,
      "task": 2203,
      "Web": 2204,
      "compare": 2205,
      "getCompanyId": 2206,
      "##Unit": 2207,
      "##inding": 2208,
      "##reg": 2209,
      "##TreeNode": 2210,
      "met": 2211,
      "Dis": 2212,
      "##Point": 2213,
      "##blem": 2214,
      "##opping": 2215,
      "ver": 2216,
      "target": 2217,
      "##putStream": 2218,
      "##untime": 2219,
      "()),": 2220,
      "##ram": 2221,
      "##ableD": 2222,
      "##wner": 2223,
      "##Order": 2224,
      "apache": 2225,
      "##order": 2226,
      "##Elements": 2227,
      "##cc": 2228,
      "##arker": 2229,
      "##chema": 2230,
      "##quence": 2231,
      "##Box": 2232,
      "##itch": 2233,
      "exists": 2234,
      "project": 2235,
      "##stic": 2236,
      "table": 2237,
      "##ical": 2238,
      "##assword": 2239,
      "var38": 2240,
      "##ration": 2241,
      "getData": 2242,
      "##Handle": 2243,
      "##Up": 2244,
      "##CT": 2245,
      "kaleo": 2246,
      "##Tim": 2247,
      "Group": 2248,
      "var37": 2249,
      "##Policy": 2250,
      "##ome": 2251,
      "Builder": 2252,
      "IN": 2253,
      "module": 2254,
      "##InputStream": 2255,
      "##Metadata": 2256,
      "getLocal": 2257,
      "startsWith": 2258,
      ",\"": 2259,
      "buffer": 2260,
      "##Track": 2261,
      "gener": 2262,
      "source": 2263,
      "##ableDynamicQuery": 2264,
      "##Label": 2265,
      "should": 2266,
      "unchecked": 2267,
      "##SON": 2268,
      "##Mapper": 2269,
      "##ique": 2270,
      "##ggreg": 2271,
      "##Visitor": 2272,
      "##roll": 2273,
      "##uture": 2274,
      "##efore": 2275,
      "Component": 2276,
      "##tition": 2277,
      "##eleg": 2278,
      "getService": 2279,
      "reset": 2280,
      "##ArgumentException": 2281,
      "##Rule": 2282,
      "string": 2283,
      "##Connection": 2284,
      "##ighligh": 2285,
      "##Extension": 2286,
      "handle": 2287,
      "al": 2288,
      "##OutputStream": 2289,
      "##site": 2290,
      "##UT": 2291,
      "##gion": 2292,
      "Job": 2293,
      "shard": 2294,
      "##witch": 2295,
      "getColumn": 2296,
      "##Button": 2297,
      "##ferences": 2298,
      "##lector": 2299,
      "##Shard": 2300,
      "Property": 2301,
      "IllegalArgumentException": 2302,
      "##exp": 2303,
      "filter": 2304,
      "closeSession": 2305,
      "##Style": 2306,
      "}}": 2307,
      "##Portlet": 2308,
      "##upp": 2309,
      "##ocialActivity": 2310,
      "##Non": 2311,
      "##Short": 2312,
      "##Renderer": 2313,
      "##iter": 2314,
      "##ersist": 2315,
      "getH": 2316,
      "##ackground": 2317,
      "local": 2318,
      "hashCode": 2319,
      "##ighlight": 2320,
      "getIn": 2321,
      "##cept": 2322,
      "getProperty": 2323,
      "begin": 2324,
      "##her": 2325,
      "##ments": 2326,
      "##NI": 2327,
      "TextRange": 2328,
      "##Children": 2329,
      "##Package": 2330,
      "bar": 2331,
      "settings": 2332,
      "##Image": 2333,
      "Groovy": 2334,
      "##ia": 2335,
      "##rtifact": 2336,
      "##Al": 2337,
      "##ymb": 2338,
      "##inary": 2339,
      "##ff": 2340,
      "##Role": 2341,
      "##FS": 2342,
      "hasNext": 2343,
      "##ymbol": 2344,
      "##SQL": 2345,
      "##jection": 2346,
      "parser": 2347,
      "##lobal": 2348,
      "##ando": 2349,
      "content": 2350,
      "max": 2351,
      "##face": 2352,
      "##Pool": 2353,
      "var39": 2354,
      "##ME": 2355,
      "##ceptor": 2356,
      "##Write": 2357,
      "##ualified": 2358,
      "##econ": 2359,
      "##load": 2360,
      "select": 2361,
      "po": 2362,
      "##Server": 2363,
      "getString": 2364,
      "convert": 2365,
      "##taining": 2366,
      "##Default": 2367,
      "##Language": 2368,
      "##ritable": 2369,
      "getDialect": 2370,
      "version": 2371,
      "getStart": 2372,
      "();}}": 2373,
      "Rep": 2374,
      "##uctor": 2375,
      "block": 2376,
      "expected": 2377,
      "##Match": 2378,
      "##Supp": 2379,
      "##Is": 2380,
      "##lias": 2381,
      "Range": 2382,
      "Simple": 2383,
      "##Member": 2384,
      "##ft": 2385,
      "##cut": 2386,
      "()).": 2387,
      "##Modifier": 2388,
      "getTransaction": 2389,
      "createQuery": 2390,
      "##tit": 2391,
      "##oapModel": 2392,
      ");}})": 2393,
      "short": 2394,
      "imp": 2395,
      "verify": 2396,
      "##Changed": 2397,
      "##Title": 2398,
      "##Resolver": 2399,
      "##edModel": 2400,
      "##CallExpression": 2401,
      "##')": 2402,
      "{}": 2403,
      "Change": 2404,
      "##ML": 2405,
      "token": 2406,
      "##Iterator": 2407,
      "Log": 2408,
      "##ecur": 2409,
      "##orr": 2410,
      "##Location": 2411,
      "##apter": 2412,
      "##chedul": 2413,
      "getV": 2414,
      "##ignature": 2415,
      "dl": 2416,
      "Annotation": 2417,
      "##\"))": 2418,
      "job": 2419,
      "##edDate": 2420,
      "asset": 2421,
      "##Pl": 2422,
      "param": 2423,
      "##ake": 2424,
      "dec": 2425,
      "##</": 2426,
      "##old": 2427,
      "##Usage": 2428,
      "##ape": 2429,
      "##Store": 2430,
      "##Fields": 2431,
      "##Cell": 2432,
      "property": 2433,
      "##Char": 2434,
      "##ouse": 2435,
      "##ved": 2436,
      "values": 2437,
      "##000": 2438,
      "##HashMap": 2439,
      "##stit": 2440,
      "##_P": 2441,
      "##Wh": 2442,
      "##emeDisplay": 2443,
      "##ove": 2444,
      "##Rep": 2445,
      "getContaining": 2446,
      "QueryPos": 2447,
      "var2public": 2448,
      "##uction": 2449,
      "##ther": 2450,
      "Invalid": 2451,
      "##mark": 2452,
      "psi": 2453,
      "##JNI": 2454,
      "putResult": 2455,
      "Gener": 2456,
      "##Sequence": 2457,
      "##\"+\"": 2458,
      "##valu": 2459,
      "##Dependency": 2460,
      "Search": 2461,
      "require": 2462,
      "##_C": 2463,
      "var40": 2464,
      "qPos": 2465,
      "json": 2466,
      "##Pane": 2467,
      "Field": 2468,
      "##lush": 2469,
      "SE": 2470,
      "##Att": 2471,
      "##sure": 2472,
      "##Constraint": 2473,
      "##Resolve": 2474,
      "##figurable": 2475,
      "##yz": 2476,
      "##xture": 2477,
      "##Collection": 2478,
      "##oft": 2479,
      "getUserId": 2480,
      "##Proto": 2481,
      "must": 2482,
      "Dom": 2483,
      "component": 2484,
      "##ixture": 2485,
      "line": 2486,
      "ApplicationManager": 2487,
      "##ClassName": 2488,
      "##iteral": 2489,
      "##Xml": 2490,
      "##Fac": 2491,
      "setP": 2492,
      "##Tracker": 2493,
      "fetch": 2494,
      "getComponent": 2495,
      "Usage": 2496,
      "##Dom": 2497,
      "input": 2498,
      "##ater": 2499,
      "##ick": 2500,
      "properties": 2501,
      "##protected": 2502,
      "##ating": 2503,
      "##oring": 2504,
      "##Visible": 2505,
      "##flow": 2506,
      "##RE": 2507,
      "##ao": 2508,
      "##be": 2509,
      "##amp": 2510,
      "##expected": 2511,
      "##sc": 2512,
      "##Storage": 2513,
      "()}": 2514,
      "##Spec": 2515,
      "validate": 2516,
      "##AL": 2517,
      "##Conf": 2518,
      "supert": 2519,
      "http": 2520,
      "min": 2521,
      "var41": 2522,
      "myF": 2523,
      "getW": 2524,
      "##vir": 2525,
      "(((": 2526,
      "asList": 2527,
      "));": 2528,
      "URL": 2529,
      "inter": 2530,
      "##var": 2531,
      "##viron": 2532,
      "(@": 2533,
      "soapModel": 2534,
      "Git": 2535,
      "isIn": 2536,
      "##vironment": 2537,
      "array": 2538,
      "##sert": 2539,
      "charAt": 2540,
      ".\")": 2541,
      "##Dialog": 2542,
      "rec": 2543,
      "ddm": 2544,
      "##Fix": 2545,
      "Entity": 2546,
      "##lice": 2547,
      "##ptional": 2548,
      "\"\"": 2549,
      "inc": 2550,
      "_per": 2551,
      "##rift": 2552,
      "##ries": 2553,
      "startObject": 2554,
      "##ocus": 2555,
      "AnActionEvent": 2556,
      "##Assignment": 2557,
      "##bc": 2558,
      "supertry": 2559,
      "##stics": 2560,
      "and": 2561,
      "##Length": 2562,
      "[]{": 2563,
      "getRoot": 2564,
      "##Implement": 2565,
      "##stant": 2566,
      "##uple": 2567,
      "));}": 2568,
      "##Keys": 2569,
      "##//": 2570,
      "##inter": 2571,
      "##[]": 2572,
      "##idth": 2573,
      "PsiReferenceExpression": 2574,
      "ind": 2575,
      "##econd": 2576,
      "##clu": 2577,
      "sort": 2578,
      "setText": 2579,
      "isValid": 2580,
      "PsiClassType": 2581,
      "##ached": 2582,
      "Inter": 2583,
      "##Param": 2584,
      "##prot": 2585,
      "col": 2586,
      "_pers": 2587,
      "##ecurity": 2588,
      "switch": 2589,
      "##Pop": 2590,
      "doc": 2591,
      "he": 2592,
      "_persistence": 2593,
      "##ategy": 2594,
      "AST": 2595,
      "rep": 2596,
      "endObject": 2597,
      "##eed": 2598,
      "')": 2599,
      "##Be": 2600,
      "##Space": 2601,
      "accept": 2602,
      "##Protocol": 2603,
      "##Preferences": 2604,
      "##osite": 2605,
      "##rc": 2606,
      "existing": 2607,
      "HttpServletRequest": 2608,
      "QueryUtil": 2609,
      "##cheme": 2610,
      "##Pattern": 2611,
      "Get": 2612,
      "Number": 2613,
      "Value": 2614,
      "##cheduler": 2615,
      "##agment": 2616,
      "##AR": 2617,
      "##vn": 2618,
      "getDefault": 2619,
      "##HashSet": 2620,
      "call": 2621,
      "##Kaleo": 2622,
      "##rics": 2623,
      "Stream": 2624,
      "20": 2625,
      "##Soap": 2626,
      "io": 2627,
      "##vs": 2628,
      "##anization": 2629,
      "##Job": 2630,
      "##LocalServiceUtil": 2631,
      "##Progress": 2632,
      "##Checker": 2633,
      "##gr": 2634,
      "var42": 2635,
      "isDebug": 2636,
      "##Color": 2637,
      "##Ids": 2638,
      "##ntries": 2639,
      "##eft": 2640,
      "##ikiPage": 2641,
      "Calendar": 2642,
      "##Adapter": 2643,
      "Ide": 2644,
      "Settings": 2645,
      "()]": 2646,
      "Multi": 2647,
      "##Cluster": 2648,
      "prot": 2649,
      "split": 2650,
      "##Socket": 2651,
      "UI": 2652,
      "\"}": 2653,
      "##ged": 2654,
      "at": 2655,
      "setAttribute": 2656,
      "indexOf": 2657,
      "##aster": 2658,
      "ImmutableList": 2659,
      "Dat": 2660,
      "isDebugEnabled": 2661,
      "##unner": 2662,
      "##Convert": 2663,
      "Time": 2664,
      "##line": 2665,
      "thrift": 2666,
      "##otal": 2667,
      "##ookmark": 2668,
      "##PK": 2669,
      "##Same": 2670,
      "Inet": 2671,
      "DynamicQuery": 2672,
      "Properties": 2673,
      "##aging": 2674,
      "##dmin": 2675,
      "##tx": 2676,
      "\",\"": 2677,
      "##icator": 2678,
      "setB": 2679,
      "PsiTree": 2680,
      "containsKey": 2681,
      "##vail": 2682,
      "unique": 2683,
      "##Create": 2684,
      "##Popup": 2685,
      "Cache": 2686,
      "tag": 2687,
      "##Down": 2688,
      "FileUtil": 2689,
      "##orkflow": 2690,
      "##Term": 2691,
      "##tml": 2692,
      "status": 2693,
      "other": 2694,
      "writer": 2695,
      "##UserId": 2696,
      "Cluster": 2697,
      "##ibern": 2698,
      "##No": 2699,
      "##ibernate": 2700,
      "getPre": 2701,
      "##Ign": 2702,
      "stor": 2703,
      "setM": 2704,
      "##uce": 2705,
      "##uper": 2706,
      "##Highligh": 2707,
      "UserGroup": 2708,
      "order": 2709,
      "JComponent": 2710,
      "cl": 2711,
      "##ferred": 2712,
      "[]>": 2713,
      "getDocument": 2714,
      "Param": 2715,
      "var43": 2716,
      "PsiField": 2717,
      "getStatus": 2718,
      "##Lock": 2719,
      "##==": 2720,
      "getMethod": 2721,
      "parameter": 2722,
      "##Rel": 2723,
      "##ingle": 2724,
      "##Remote": 2725,
      "last": 2726,
      "mock": 2727,
      "##LECT": 2728,
      "##ested": 2729,
      "factory": 2730,
      "getBean": 2731,
      "JournalArticle": 2732,
      "##estamp": 2733,
      "##ts": 2734,
      "##Op": 2735,
      "##ere": 2736,
      "##anode": 2737,
      "##actoring": 2738,
      "getSelected": 2739,
      "Met": 2740,
      "InputStream": 2741,
      "##ROM": 2742,
      "##ersis": 2743,
      "##Owner": 2744,
      "##angle": 2745,
      "##umer": 2746,
      "Int": 2747,
      "ad": 2748,
      "##\\\\": 2749,
      "##vailable": 2750,
      "##clude": 2751,
      "##Web": 2752,
      "##ynchronized": 2753,
      "SELECT": 2754,
      "Expression": 2755,
      "FROM": 2756,
      "output": 2757,
      "##Actions": 2758,
      "##overy": 2759,
      "##ollision": 2760,
      "\"]": 2761,
      "mb": 2762,
      "var44": 2763,
      "##**": 2764,
      "##struction": 2765,
      "##Report": 2766,
      "getN": 2767,
      "apply": 2768,
      "://": 2769,
      "##Registration": 2770,
      "##over": 2771,
      "dao": 2772,
      "##laration": 2773,
      "getContent": 2774,
      "##tistics": 2775,
      "##alyz": 2776,
      "##ggregation": 2777,
      "item": 2778,
      "##Fail": 2779,
      "PsiJava": 2780,
      "##Literal": 2781,
      "##Channel": 2782,
      "setEnabled": 2783,
      "##inglet": 2784,
      "##Such": 2785,
      "##dir": 2786,
      "##ingleton": 2787,
      "##ServletResponse": 2788,
      "trim": 2789,
      "getPrimaryKey": 2790,
      "##Host": 2791,
      "##illis": 2792,
      "wr": 2793,
      "##Condition": 2794,
      "merge": 2795,
      "##ancel": 2796,
      "<?>>": 2797,
      "##Writable": 2798,
      "##istory": 2799,
      ">\"": 2800,
      "Runtime": 2801,
      "setS": 2802,
      "orm": 2803,
      "NoSuch": 2804,
      "PsiTreeUtil": 2805,
      "getResource": 2806,
      "##Executor": 2807,
      "##essages": 2808,
      "ContainerUtil": 2809,
      "des": 2810,
      "##yc": 2811,
      "##uccess": 2812,
      "##Det": 2813,
      "getCurrent": 2814,
      "bean": 2815,
      "Language": 2816,
      "##agedModel": 2817,
      "##{}": 2818,
      "wait": 2819,
      "range": 2820,
      "notNull": 2821,
      "refresh": 2822,
      "##logsEntry": 2823,
      "##Profile": 2824,
      "caret": 2825,
      "##Counter": 2826,
      "##Completion": 2827,
      "Progress": 2828,
      "##formation": 2829,
      "##terable": 2830,
      "url": 2831,
      "##Generator": 2832,
      "##lish": 2833,
      "##inal": 2834,
      "##DataContext": 2835,
      "##Split": 2836,
      "join": 2837,
      "##tep": 2838,
      "jar": 2839,
      "##ClassLoader": 2840,
      "##pose": 2841,
      "##Signature": 2842,
      "##Region": 2843,
      "##lag": 2844,
      "##par": 2845,
      "##DAT": 2846,
      "##Qualified": 2847,
      "##Callback": 2848,
      "##sumer": 2849,
      "getParameter": 2850,
      "\")))": 2851,
      "setF": 2852,
      "##kn": 2853,
      "setName": 2854,
      "##adle": 2855,
      "##rement": 2856,
      "##Vcs": 2857,
      "Result": 2858,
      "[\"": 2859,
      "configuration": 2860,
      "##Interface": 2861,
      "();}})": 2862,
      "##NonNull": 2863,
      "journal": 2864,
      "##ics": 2865,
      "getEnd": 2866,
      "getNode": 2867,
      "##bers": 2868,
      "when": 2869,
      "container": 2870,
      "##jb": 2871,
      "##gine": 2872,
      "Out": 2873,
      "\"+\"": 2874,
      "##Shortcut": 2875,
      "##Marker": 2876,
      "##ination": 2877,
      "##reateDate": 2878,
      "Bean": 2879,
      "Color": 2880,
      "##andard": 2881,
      "getLast": 2882,
      "getClassName": 2883,
      "lock": 2884,
      "ASTNode": 2885,
      "##ependencies": 2886,
      "##orrect": 2887,
      "'\"": 2888,
      "assertNull": 2889,
      "##ugg": 2890,
      "requireNonNull": 2891,
      "##name": 2892,
      "##ause": 2893,
      "initial": 2894,
      "Sc": 2895,
      "getE": 2896,
      "Servlet": 2897,
      "##Classes": 2898,
      "##FileSystem": 2899,
      "##Pointer": 2900,
      "isSet": 2901,
      "></": 2902,
      "##acter": 2903,
      "##ide": 2904,
      "##chive": 2905,
      "Code": 2906,
      "##Artifact": 2907,
      "##ification": 2908,
      "##Inv": 2909,
      "##ounds": 2910,
      "##rgs": 2911,
      "Exec": 2912,
      "Attribute": 2913,
      "XmlTag": 2914,
      "##nector": 2915,
      "stop": 2916,
      "##Pair": 2917,
      "',": 2918,
      "getModifi": 2919,
      "isS": 2920,
      "##Strategy": 2921,
      "##cip": 2922,
      "##Plugin": 2923,
      "##otype": 2924,
      "getDescri": 2925,
      "##StateException": 2926,
      "objectOutput": 2927,
      "unexpected": 2928,
      "##rincip": 2929,
      "##ebugger": 2930,
      "##Body": 2931,
      "##eg": 2932,
      "##rincipal": 2933,
      "##os": 2934,
      "##zz": 2935,
      "XContent": 2936,
      "##ReferenceExpression": 2937,
      "Diff": 2938,
      "Custom": 2939,
      "Operation": 2940,
      "Double": 2941,
      "uniqueResult": 2942,
      "##_c": 2943,
      "Inspection": 2944,
      "##version": 2945,
      "##_S": 2946,
      "nextLong": 2947,
      "send": 2948,
      "##Namespace": 2949,
      "External": 2950,
      "##Controller": 2951,
      "##etw": 2952,
      "->": 2953,
      "##BeanDefinition": 2954,
      "after": 2955,
      "##ocator": 2956,
      "PsiParameter": 2957,
      "##anel": 2958,
      "getFirst": 2959,
      "getStartOffset": 2960,
      "##ename": 2961,
      "##_F": 2962,
      "queue": 2963,
      "##SS": 2964,
      "##Bit": 2965,
      "getToken": 2966,
      "##Converter": 2967,
      "##anges": 2968,
      "FileSystem": 2969,
      "##bsol": 2970,
      "##Last": 2971,
      "Transaction": 2972,
      "##Binding": 2973,
      "Ac": 2974,
      "##cent": 2975,
      "getSc": 2976,
      "##UI": 2977,
      "template": 2978,
      "Jps": 2979,
      "##InstanceToken": 2980,
      "comm": 2981,
      "dispose": 2982,
      "##kip": 2983,
      "\"-": 2984,
      "description": 2985,
      "##OfType": 2986,
      "JB": 2987,
      "=\"": 2988,
      "Lookup": 2989,
      "##Support": 2990,
      "##ION": 2991,
      "Build": 2992,
      "##md": 2993,
      "matcher": 2994,
      "groupId": 2995,
      "var3public": 2996,
      "()[": 2997,
      "##Attr": 2998,
      "sp": 2999,
      "perform": 3000,
      "##lease": 3001,
      "##idate": 3002,
      "##ous": 3003,
      "\"'": 3004,
      "##andidate": 3005,
      "##UTF": 3006,
      "##Option": 3007,
      "Dir": 3008,
      "##Binary": 3009,
      "##ublish": 3010,
      "JSON": 3011,
      "pop": 3012,
      "SocialActivity": 3013,
      "dest": 3014,
      "##Prototype": 3015,
      "IllegalStateException": 3016,
      "##Active": 3017,
      "##mart": 3018,
      "configure": 3019,
      "getSh": 3020,
      "save": 3021,
      "##iler": 3022,
      "isNull": 3023,
      "})": 3024,
      "##raw": 3025,
      "##ret": 3026,
      "##DL": 3027,
      "Shard": 3028,
      "ClassLoader": 3029,
      "Template": 3030,
      "baz": 3031,
      "it": 3032,
      "names": 3033,
      "Can": 3034,
      "##Gr": 3035,
      "trace": 3036,
      "##Stub": 3037,
      "##ectangle": 3038,
      "failed": 3039,
      "##Height": 3040,
      "##elegate": 3041,
      "reference": 3042,
      "endsWith": 3043,
      "(\"]": 3044,
      "##cod": 3045,
      "web": 3046,
      "##bj": 3047,
      "Po": 3048,
      "##sync": 3049,
      "operation": 3050,
      "Graph": 3051,
      "##Comment": 3052,
      "##ework": 3053,
      "##Library": 3054,
      "getUuid": 3055,
      "calendar": 3056,
      "##Break": 3057,
      "myC": 3058,
      "At": 3059,
      "##ility": 3060,
      "##avig": 3061,
      "descriptor": 3062,
      "##DATA": 3063,
      "##Environment": 3064,
      "Parameter": 3065,
      "Highlight": 3066,
      "Compar": 3067,
      "##Inspection": 3068,
      "findBy": 3069,
      "##Run": 3070,
      "##Matcher": 3071,
      "##iable": 3072,
      "##Implementor": 3073,
      "myFixture": 3074,
      "##afe": 3075,
      "##ph": 3076,
      "var45": 3077,
      "##AndSet": 3078,
      "isP": 3079,
      "##Only": 3080,
      "##IT": 3081,
      "##UID": 3082,
      "extr": 3083,
      "persist": 3084,
      "mapping": 3085,
      "##bsolute": 3086,
      "{\"": 3087,
      "JPanel": 3088,
      "getT": 3089,
      "##AP": 3090,
      "no": 3091,
      "generate": 3092,
      "UIUtil": 3093,
      "Process": 3094,
      "newInstance": 3095,
      "Function": 3096,
      "##Edit": 3097,
      "Library": 3098,
      "##estion": 3099,
      "getAll": 3100,
      "var49": 3101,
      "Sta": 3102,
      "##ES": 3103,
      "Void": 3104,
      "0L": 3105,
      "Iterable": 3106,
      "##odifiable": 3107,
      "annotation": 3108,
      "##Aw": 3109,
      "##Interceptor": 3110,
      "term": 3111,
      "##Prefix": 3112,
      "##sole": 3113,
      "getLine": 3114,
      "title": 3115,
      "Repo": 3116,
      "=\\\"": 3117,
      "synchronized": 3118,
      "##ChangeList": 3119,
      "supp": 3120,
      "##rganization": 3121,
      "repository": 3122,
      "assertSame": 3123,
      "##Expr": 3124,
      "##icate": 3125,
      "##pc": 3126,
      "##enu": 3127,
      "##Millis": 3128,
      "##Internal": 3129,
      "\"+": 3130,
      "getEntity": 3131,
      "##Facade": 3132,
      "##ower": 3133,
      "|=": 3134,
      "##Commit": 3135,
      "(-": 3136,
      "DDMStructure": 3137,
      "stream": 3138,
      "def": 3139,
      "##Snapshot": 3140,
      "indices": 3141,
      "##alc": 3142,
      "PsiMethodCallExpression": 3143,
      "application": 3144,
      "ctx": 3145,
      "##stitutor": 3146,
      "##Perform": 3147,
      "getJ": 3148,
      "##map": 3149,
      "--": 3150,
      "found": 3151,
      "mark": 3152,
      "##Assignable": 3153,
      "number": 3154,
      "##Open": 3155,
      "Error": 3156,
      "##Initializer": 3157,
      "##path": 3158,
      "getTest": 3159,
      "DLFileEntry": 3160,
      "##Fragment": 3161,
      "clearCache": 3162,
      "Sub": 3163,
      "##unk": 3164,
      "flush": 3165,
      "Bytes": 3166,
      "##Future": 3167,
      "make": 3168,
      "lookup": 3169,
      "##issing": 3170,
      "URI": 3171,
      "##ector3": 3172,
      "##ElementType": 3173,
      "##text": 3174,
      "[\")": 3175,
      "##riteria": 3176,
      "Name": 3177,
      "##Statistics": 3178,
      "panel": 3179,
      "##Mutable": 3180,
      "first": 3181,
      "##Col": 3182,
      "##RA": 3183,
      "Svn": 3184,
      "PsiVariable": 3185,
      "##chedule": 3186,
      "Dispo": 3187,
      "##Indicator": 3188,
      "##ling": 3189,
      "##ReferenceElement": 3190,
      "##down": 3191,
      "page": 3192,
      "1000": 3193,
      "##Execution": 3194,
      "Shopping": 3195,
      "##Changes": 3196,
      "##Wrap": 3197,
      "gl": 3198,
      "entityCache": 3199,
      "##ND": 3200,
      "##uto": 3201,
      "##anif": 3202,
      "123": 3203,
      "##apped": 3204,
      "##gistry": 3205,
      "##erializer": 3206,
      "var46": 3207,
      "##Double": 3208,
      "setSelected": 3209,
      "Repository": 3210,
      "\"<": 3211,
      "ar": 3212,
      "Plugin": 3213,
      "##ie": 3214,
      "toArray": 3215,
      "##Ignore": 3216,
      "##clud": 3217,
      "Symbol": 3218,
      "##ample": 3219,
      "assertFunction": 3220,
      "tree": 3221,
      "##Declaration": 3222,
      "##sic": 3223,
      "Buffer": 3224,
      "##Results": 3225,
      "##Entries": 3226,
      "':": 3227,
      "##structor": 3228,
      "##Sp": 3229,
      "cannot": 3230,
      "var47": 3231,
      "##Over": 3232,
      "getPersistence": 3233,
      "Global": 3234,
      "isAssignable": 3235,
      "##PsiElement": 3236,
      "InetAddress": 3237,
      "##Build": 3238,
      "##ct": 3239,
      "##ApplicationContext": 3240,
      "##Methods": 3241,
      "routing": 3242,
      "##Requi": 3243,
      "time": 3244,
      "(\"\\": 3245,
      "##ooking": 3246,
      "##ModifierProperty": 3247,
      "rest": 3248,
      "FS": 3249,
      "##omic": 3250,
      "##tering": 3251,
      "processException": 3252,
      "getLong": 3253,
      "getModel": 3254,
      "##></": 3255,
      "##External": 3256,
      "RuntimeException": 3257,
      "Sp": 3258,
      "aClass": 3259,
      "myEditor": 3260,
      "##perator": 3261,
      "server": 3262,
      "##Scheme": 3263,
      "MockHttp": 3264,
      "++]": 3265,
      "header": 3266,
      "##Runner": 3267,
      "200": 3268,
      "11": 3269,
      "##Timer": 3270,
      "Add": 3271,
      "CDATA": 3272,
      "##rup": 3273,
      "compareTo": 3274,
      "skip": 3275,
      "##JB": 3276,
      "##alyzer": 3277,
      "##Rows": 3278,
      "beginTransaction": 3279,
      "##inish": 3280,
      "getLayout": 3281,
      "##ension": 3282,
      "##oop": 3283,
      "##UserName": 3284,
      "thread": 3285,
      "have": 3286,
      "move": 3287,
      "view": 3288,
      "##Focus": 3289,
      ")(": 3290,
      "Table": 3291,
      "##ities": 3292,
      "##stall": 3293,
      "selected": 3294,
      "nodes": 3295,
      "##Load": 3296,
      "##ET": 3297,
      "##ameters": 3298,
      "files": 3299,
      "getChild": 3300,
      "##![": 3301,
      "XML": 3302,
      "##ire": 3303,
      "import": 3304,
      "var50": 3305,
      "Base": 3306,
      "insert": 3307,
      "CharSequence": 3308,
      "bind": 3309,
      "##asic": 3310,
      "##_b": 3311,
      "##entic": 3312,
      "then": 3313,
      "##ayload": 3314,
      "MethodHandler": 3315,
      "0f": 3316,
      "options": 3317,
      "Content": 3318,
      "##Problem": 3319,
      "##ermissionChecker": 3320,
      "objectInput": 3321,
      "##DR": 3322,
      "##riend": 3323,
      "##play": 3324,
      "iter": 3325,
      "##Tab": 3326,
      "address": 3327,
      "##imension": 3328,
      "Pl": 3329,
      "##Del": 3330,
      ">>>": 3331,
      ";}})": 3332,
      "change": 3333,
      "Pre": 3334,
      "##Bag": 3335,
      "Optional": 3336,
      "##ocate": 3337,
      "buf": 3338,
      ")),": 3339,
      "##Copy": 3340,
      "?>": 3341,
      "countBy": 3342,
      "getLocalName": 3343,
      "bytes": 3344,
      "##Step": 3345,
      "##Named": 3346,
      "getPsi": 3347,
      "getModule": 3348,
      "Grid": 3349,
      "},": 3350,
      "##NT": 3351,
      "##mask": 3352,
      "##jected": 3353,
      "##Paths": 3354,
      "##Performed": 3355,
      "Deployment": 3356,
      "metadata": 3357,
      "(\"]]": 3358,
      "##24": 3359,
      "admin": 3360,
      "##OR": 3361,
      "listener": 3362,
      "##roy": 3363,
      "##Information": 3364,
      "##Post": 3365,
      "isDirectory": 3366,
      "##{}]": 3367,
      "##After": 3368,
      "##rimi": 3369,
      "MethodKey": 3370,
      "<<": 3371,
      "31": 3372,
      "##ember": 3373,
      "plugin": 3374,
      "PsiDirectory": 3375,
      "><![": 3376,
      "getColumnBit": 3377,
      "getColumnBitmask": 3378,
      "##Combo": 3379,
      "(\"]]></": 3380,
      "##E_": 3381,
      "WH": 3382,
      "##Partition": 3383,
      "Request": 3384,
      "getTime": 3385,
      "##SearchScope": 3386,
      "##Scroll": 3387,
      "##Sdk": 3388,
      "getReference": 3389,
      "SS": 3390,
      "[][]": 3391,
      "##Highlighter": 3392,
      "manager": 3393,
      "1L": 3394,
      "##Equal": 3395,
      "##Contain": 3396,
      "##nect": 3397,
      "##ERE": 3398,
      "ensure": 3399,
      "##uthentic": 3400,
      "ParamUtil": 3401,
      "##ited": 3402,
      "getContainingFile": 3403,
      "##ycle": 3404,
      "##ails": 3405,
      "##ersistent": 3406,
      "##FormField": 3407,
      "##ms": 3408,
      "##rimitive": 3409,
      "##rec": 3410,
      "##known": 3411,
      "##arted": 3412,
      "getVirtualFile": 3413,
      "##anifest": 3414,
      "##Enum": 3415,
      "setCompanyId": 3416,
      "##bar": 3417,
      "##Close": 3418,
      "##Booking": 3419,
      "##ooser": 3420,
      "was": 3421,
      "setValue": 3422,
      "##anage": 3423,
      "##utdown": 3424,
      "Datanode": 3425,
      "##Script": 3426,
      "##dl": 3427,
      ".<": 3428,
      "store": 3429,
      "##dfs": 3430,
      "##Headers": 3431,
      "getEditor": 3432,
      "##Join": 3433,
      "##card": 3434,
      "\"\\": 3435,
      "Foo": 3436,
      "cla": 3437,
      "struct": 3438,
      "getDescription": 3439,
      "getVersion": 3440,
      "##emon": 3441,
      "##Hint": 3442,
      "##xtr": 3443,
      "var52": 3444,
      "tim": 3445,
      "getAc": 3446,
      "ThemeDisplay": 3447,
      "Call": 3448,
      "##MutableTreeNode": 3449,
      "RM": 3450,
      "##otify": 3451,
      "##olls": 3452,
      "collect": 3453,
      "getSelection": 3454,
      "Standard": 3455,
      "##Co": 3456,
      "##riendly": 3457,
      "mk": 3458,
      "DefaultMutableTreeNode": 3459,
      "PsiUtil": 3460,
      "Context": 3461,
      "rm": 3462,
      "setD": 3463,
      "##Routing": 3464,
      "##AttemptId": 3465,
      "raw": 3466,
      "WHERE": 3467,
      "##ummary": 3468,
      "Artifact": 3469,
      "##Pack": 3470,
      "##Frame": 3471,
      "Expando": 3472,
      "hasModifierProperty": 3473,
      "Commit": 3474,
      "##Static": 3475,
      "isSelected": 3476,
      "Generic": 3477,
      "##History": 3478,
      "WikiPage": 3479,
      "getBoolean": 3480,
      "matches": 3481,
      "actionGet": 3482,
      "randomString": 3483,
      "Tool": 3484,
      "Remote": 3485,
      "Client": 3486,
      "##Exist": 3487,
      "deployment": 3488,
      "getSource": 3489,
      "Line": 3490,
      "singleton": 3491,
      "##anaged": 3492,
      "Internal": 3493,
      "##Show": 3494,
      "15": 3495,
      "##eek": 3496,
      "Term": 3497,
      "one": 3498,
      "##box": 3499,
      "are": 3500,
      "old": 3501,
      "##Custom": 3502,
      "##alys": 3503,
      "##lete": 3504,
      "getBytes": 3505,
      "actionPerformed": 3506,
      "##ht": 3507,
      "parseAndSet": 3508,
      "base": 3509,
      "warning": 3510,
      "parseAndSetParameter": 3511,
      "##Diff": 3512,
      "getEndOffset": 3513,
      "##lowed": 3514,
      "##Work": 3515,
      "##Injection": 3516,
      "##alysis": 3517,
      "##sages": 3518,
      "var48": 3519,
      "Big": 3520,
      "##acro": 3521,
      "##rop": 3522,
      "Util": 3523,
      "Common": 3524,
      "ed": 3525,
      "##Services": 3526,
      "writeLong": 3527,
      "_c": 3528,
      "gr": 3529,
      "push": 3530,
      "getChildren": 3531,
      "elements": 3532,
      "##udit": 3533,
      "host": 3534,
      "##ok": 3535,
      "##Aware": 3536,
      "##reen": 3537,
      "Root": 3538,
      "##een": 3539,
      "##Failure": 3540,
      "modifi": 3541,
      "##QualifiedName": 3542,
      "##ickFix": 3543,
      "##Selector": 3544,
      "compute": 3545,
      "##White": 3546,
      "statement": 3547,
      "dialog": 3548,
      "Composite": 3549,
      "##ote": 3550,
      "##Uri": 3551,
      "##grade": 3552,
      "##Constructor": 3553,
      ")\",": 3554,
      "Role": 3555,
      "##imal": 3556,
      "##FromText": 3557,
      "Rad": 3558,
      "##erson": 3559,
      "getDec": 3560,
      "##----": 3561,
      "position": 3562,
      "getTree": 3563,
      "code": 3564,
      "connection": 3565,
      "Filter": 3566,
      "Order": 3567,
      "##Breakpoint": 3568,
      "##riendlyURL": 3569,
      "mkdir": 3570,
      "##sable": 3571,
      "##AC": 3572,
      "setProperty": 3573,
      "Problem": 3574,
      "##Asset": 3575,
      "##Mod": 3576,
      "protocol": 3577,
      "le": 3578,
      "##Super": 3579,
      "where": 3580,
      "Rectangle": 3581,
      "##etween": 3582,
      "will": 3583,
      "##Alias": 3584,
      "getAbsolute": 3585,
      "##DocumentManager": 3586,
      "##Setting": 3587,
      "getBlock": 3588,
      "Hg": 3589,
      "\";": 3590,
      "directory": 3591,
      "clean": 3592,
      "tool": 3593,
      "##isteners": 3594,
      "Row": 3595,
      "##rowser": 3596,
      "##One": 3597,
      "getDis": 3598,
      "##estination": 3599,
      "##Delet": 3600,
      "draw": 3601,
      "extract": 3602,
      "Bookmark": 3603,
      "Getter": 3604,
      "qu": 3605,
      "Atomic": 3606,
      "##Integer": 3607,
      "0x0000": 3608,
      "##ActionableDynamicQuery": 3609,
      "16": 3610,
      "##Publish": 3611,
      "##))": 3612,
      "getIndex": 3613,
      "##Flag": 3614,
      "##ony": 3615,
      "Graphics": 3616,
      "Float": 3617,
      "##Warn": 3618,
      "##vance": 3619,
      "##Constraints": 3620,
      "does": 3621,
      "LookupElement": 3622,
      "Enum": 3623,
      "before": 3624,
      "(\".": 3625,
      "handler": 3626,
      "##ouseEvent": 3627,
      "cap": 3628,
      "##Instruction": 3629,
      "isEnabled": 3630,
      "variable": 3631,
      "Tim": 3632,
      "var51": 3633,
      "##Timestamp": 3634,
      "##anagement": 3635,
      "getParentOfType": 3636,
      "##Delete": 3637,
      "var4public": 3638,
      "Id": 3639,
      "UsageInfo": 3640,
      "##ures": 3641,
      "Dimension": 3642,
      "ArrayUtil": 3643,
      "getClassLoader": 3644,
      "spec": 3645,
      "##ATE": 3646,
      "iprot": 3647,
      "25": 3648,
      "isA": 3649,
      "##12": 3650,
      "LinkedHashMap": 3651,
      "Smart": 3652,
      "FilePath": 3653,
      "cacheResult": 3654,
      "##IG": 3655,
      "fr": 3656,
      "App": 3657,
      "##Use": 3658,
      "getField": 3659,
      "##ualifier": 3660,
      "forName": 3661,
      "Version": 3662,
      "bucket": 3663,
      "##rior": 3664,
      "##Accessor": 3665,
      "Cannot": 3666,
      "Str": 3667,
      "::": 3668,
      "##try": 3669,
      "getTextRange": 3670,
      "command": 3671,
      "_p": 3672,
      "##arsh": 3673,
      "_s": 3674,
      "argument": 3675,
      "##IND": 3676,
      "##Lim": 3677,
      "parameters": 3678,
      "##Ph": 3679,
      "##Constant": 3680,
      "##dbc": 3681,
      "fetchBy": 3682,
      "##_T": 3683,
      "##Deployment": 3684,
      "##bd": 3685,
      "serviceContext": 3686,
      "any": 3687,
      "##tended": 3688,
      "##Timeout": 3689,
      "##anti": 3690,
      ");}}}": 3691,
      "Item": 3692,
      "##FileVersion": 3693,
      "##ily": 3694,
      "##ALU": 3695,
      "emptyList": 3696,
      ".\",": 3697,
      "##ependent": 3698,
      "##Zone": 3699,
      "mv": 3700,
      "##Lookup": 3701,
      "companyId": 3702,
      "##erialize": 3703,
      "##Utilities": 3704,
      "\":": 3705,
      "lib": 3706,
      "##Required": 3707,
      "##urs": 3708,
      "by": 3709,
      "##sl": 3710,
      "##VN": 3711,
      "##leep": 3712,
      "##Cap": 3713,
      "##scri": 3714,
      "##aming": 3715,
      "##Metrics": 3716,
      "##ByName": 3717,
      "html": 3718,
      "##dr": 3719,
      "processor": 3720,
      "currentTime": 3721,
      "##Ver": 3722,
      "##Parse": 3723,
      "##Width": 3724,
      "record": 3725,
      "##_B": 3726,
      "'\\": 3727,
      "thenReturn": 3728,
      "##abul": 3729,
      "##Transform": 3730,
      "##io": 3731,
      "Debugger": 3732,
      "className": 3733,
      "##current": 3734,
      "##cu": 3735,
      "##ounce": 3736,
      "##ArrayList": 3737,
      "##Tasks": 3738,
      "32": 3739,
      "##First": 3740,
      "isNotNull": 3741,
      "MBMessage": 3742,
      "##Dispo": 3743,
      "Comparing": 3744,
      "##ential": 3745,
      "##_set": 3746,
      "(\"-": 3747,
      "Null": 3748,
      "##ored": 3749,
      "getPresentation": 3750,
      "##used": 3751,
      "##asswordPolicy": 3752,
      "##perand": 3753,
      "##ending": 3754,
      "Dec": 3755,
      "portletDataContext": 3756,
      "Icon": 3757,
      "##ifec": 3758,
      "##Dist": 3759,
      "artifact": 3760,
      "Soft": 3761,
      "##mail": 3762,
      "##Invocation": 3763,
      "##Roots": 3764,
      "desc": 3765,
      "##ifecycle": 3766,
      "Collision": 3767,
      "getSettings": 3768,
      "Refactoring": 3769,
      "themeDisplay": 3770,
      "Inc": 3771,
      "DDMTemplate": 3772,
      "role": 3773,
      "txt": 3774,
      "currentTimeMillis": 3775,
      "CollisionJNI": 3776,
      "getSub": 3777,
      "setSource": 3778,
      "1024": 3779,
      "getClassNameId": 3780,
      "##Finder": 3781,
      "##umb": 3782,
      "##ramework": 3783,
      "##ibling": 3784,
      "##ready": 3785,
      "##AB": 3786,
      "##system": 3787,
      "collection": 3788,
      "invalid": 3789,
      "src": 3790,
      "[{}]": 3791,
      "isAssignableFrom": 3792,
      "##ersister": 3793,
      "##Engine": 3794,
      "Character": 3795,
      "Rec": 3796,
      "##ati": 3797,
      "getPortlet": 3798,
      "##boss": 3799,
      "##Multi": 3800,
      "myTree": 3801,
      "link": 3802,
      "##ocabul": 3803,
      "##redicate": 3804,
      "ClusterState": 3805,
      "\"\")": 3806,
      "PyClass": 3807,
      "##ccVersion": 3808,
      "getState": 3809,
      "##GER": 3810,
      "Input": 3811,
      "increment": 3812,
      "SQL": 3813,
      "multi": 3814,
      "##oly": 3815,
      "##ridge": 3816,
      "det": 3817,
      "consum": 3818,
      "##board": 3819,
      "##angement": 3820,
      "##ful": 3821,
      "##sn": 3822,
      "destroy": 3823,
      "unm": 3824,
      "##Dispatcher": 3825,
      "##onical": 3826,
      "<?,": 3827,
      "##abase": 3828,
      ")).": 3829,
      "##CodeReferenceElement": 3830,
      "finish": 3831,
      "##licit": 3832,
      "IElementType": 3833,
      "oprot": 3834,
      "Connection": 3835,
      "##Configurable": 3836,
      "##ResolveResult": 3837,
      "rel": 3838,
      "##Chooser": 3839,
      "##river": 3840,
      "jboss": 3841,
      "Export": 3842,
      "date": 3843,
      "servlet": 3844,
      "##iD": 3845,
      "##RuleGroup": 3846,
      "##vious": 3847,
      "##nounce": 3848,
      "##Principal": 3849,
      "##ackgroundTask": 3850,
      "JavaPsi": 3851,
      "PsiTypeParameter": 3852,
      "actionableDynamicQuery": 3853,
      "up": 3854,
      "shopping": 3855,
      "##Before": 3856,
      "readLong": 3857,
      "GlobalSearchScope": 3858,
      "##eight": 3859,
      "Configurable": 3860,
      "StringUtils": 3861,
      "custom": 3862,
      "presentation": 3863,
      "##CheckBox": 3864,
      "##mous": 3865,
      "keys": 3866,
      "##losure": 3867,
      "##Presentation": 3868,
      "##Bar": 3869,
      "PortalUtil": 3870,
      "##amily": 3871,
      "##onymous": 3872,
      "cancel": 3873,
      "##gment": 3874,
      "##lared": 3875,
      "ret": 3876,
      "##MP": 3877,
      "Event": 3878,
      "##PrimaryKey": 3879,
      "aw": 3880,
      "##Later": 3881,
      "getSession": 3882,
      "##ursor": 3883,
      "Dynamic": 3884,
      "war": 3885,
      "GetterUtil": 3886,
      "##Per": 3887,
      "##Are": 3888,
      "SVN": 3889,
      "##Props": 3890,
      "selection": 3891,
      "##Substitutor": 3892,
      "##yped": 3893,
      "INT": 3894,
      "##Schema": 3895,
      "##Hits": 3896,
      "getContext": 3897,
      "##ear": 3898,
      "consume": 3899,
      "##Memory": 3900,
      "##DDM": 3901,
      "PyExpression": 3902,
      "##efinition": 3903,
      "getRe": 3904,
      "##SetBranch": 3905,
      "stats": 3906,
      "##Found": 3907,
      "##DLRecord": 3908,
      "uuid": 3909,
      "##_L": 3910,
      "##scription": 3911,
      "##valuate": 3912,
      "Point": 3913,
      "sleep": 3914,
      "##ocabulary": 3915,
      "LinkedList": 3916,
      "Finder": 3917,
      "##orter": 3918,
      "Rest": 3919,
      "GrExpression": 3920,
      "##hes": 3921,
      "var54": 3922,
      "MDR": 3923,
      "##acet": 3924,
      "##ModifiedDate": 3925,
      "##acity": 3926,
      "getAbsolutePath": 3927,
      "JavaPsiFacade": 3928,
      "var53": 3929,
      "##sets": 3930,
      "##ressed": 3931,
      "##exer": 3932,
      "##Top": 3933,
      "asString": 3934,
      "##aretModel": 3935,
      "##IgnoreCase": 3936,
      "##undle": 3937,
      "body": 3938,
      "getTarget": 3939,
      "##orld": 3940,
      "##Defined": 3941,
      "Sql": 3942,
      "op": 3943,
      "provider": 3944,
      "keySet": 3945,
      "getContainingClass": 3946,
      "getPreferred": 3947,
      "counter": 3948,
      "##cy": 3949,
      "AssetCategory": 3950,
      "##Border": 3951,
      "types": 3952,
      "getPackage": 3953,
      "##Var": 3954,
      "##Aggregation": 3955,
      "Named": 3956,
      "clone": 3957,
      "##ines": 3958,
      "LinkedHashSet": 3959,
      "Reflection": 3960,
      "Schema": 3961,
      "getAction": 3962,
      "##Scheduler": 3963,
      "##riority": 3964,
      "left": 3965,
      "getAttributeValue": 3966,
      "over": 3967,
      "DFS": 3968,
      "##stor": 3969,
      "getQualifiedName": 3970,
      "##URI": 3971,
      "Min": 3972,
      "##Conversion": 3973,
      "##ildcard": 3974,
      "entrySet": 3975,
      "\\\":": 3976,
      "##Indices": 3977,
      "##Items": 3978,
      "writeUTF": 3979,
      "params": 3980,
      "getGroup": 3981,
      "var5public": 3982,
      "##Shape": 3983,
      "Slice": 3984,
      "##JSON": 3985,
      "function": 3986,
      "getShort": 3987,
      "pl": 3988,
      "##Dat": 3989,
      "-=": 3990,
      "PsiMember": 3991,
      "GrReferenceExpression": 3992,
      "FinderPath": 3993,
      "Counter": 3994,
      "shutdown": 3995,
      "export": 3996,
      "PathAddress": 3997,
      "State": 3998,
      "##Under": 3999,
      "##Runtime": 4000,
      "clazz": 4001,
      "system": 4002,
      "##wr": 4003,
      "##Archive": 4004,
      "##iven": 4005,
      "##ComboBox": 4006,
      "##cestor": 4007,
      "EJB": 4008,
      "location": 4009,
      "##Dependencies": 4010,
      "##class": 4011,
      "##Persister": 4012,
      "##Keyword": 4013,
      "##fa": 4014,
      "##Logger": 4015,
      "Unable": 4016,
      "##Lower": 4017,
      "control": 4018,
      "##covery": 4019,
      "myProject": 4020,
      "PsiP": 4021,
      "##RAY": 4022,
      "##Transport": 4023,
      "##azy": 4024,
      "getIcon": 4025,
      "##_f": 4026,
      "Form": 4027,
      "##ordin": 4028,
      "resol": 4029,
      "##eam": 4030,
      "##key": 4031,
      "Completion": 4032,
      "##main": 4033,
      "Match": 4034,
      "##Failed": 4035,
      "getTable": 4036,
      "Expected": 4037,
      "##FF": 4038,
      "##tention": 4039,
      "partition": 4040,
      "sql": 4041,
      "##count": 4042,
      "##Params": 4043,
      "script": 4044,
      "##olding": 4045,
      "checkC": 4046,
      "##Domain": 4047,
      "Run": 4048,
      "TaskAttempt": 4049,
      "##Collector": 4050,
      "##TextField": 4051,
      "##thon": 4052,
      "##Ptr": 4053,
      "##Resources": 4054,
      "CodeStyle": 4055,
      "##Temp": 4056,
      "Vector3": 4057,
      "StagedModel": 4058,
      "addAs": 4059,
      "##no": 4060,
      "Start": 4061,
      "##Place": 4062,
      "Basic": 4063,
      "##emory": 4064,
      "javax": 4065,
      "##10": 4066,
      "HttpServletResponse": 4067,
      "setDescription": 4068,
      "mkdirs": 4069,
      "render": 4070,
      "##aemon": 4071,
      "##2D": 4072,
      "##Finish": 4073,
      "##ribe": 4074,
      "##Suite": 4075,
      "Command": 4076,
      "setStatus": 4077,
      "##odec": 4078,
      "stack": 4079,
      "##Red": 4080,
      "##Part": 4081,
      "##ormal": 4082,
      "Messages": 4083,
      "repaint": 4084,
      "waitFor": 4085,
      "##coding": 4086,
      "Window": 4087,
      "##Replace": 4088,
      "##ierarch": 4089,
      "##SER": 4090,
      "(\"--": 4091,
      "{\\": 4092,
      "##},": 4093,
      "##ces": 4094,
      "DataContext": 4095,
      "##Def": 4096,
      "ByteArray": 4097,
      "##Limit": 4098,
      "##AME": 4099,
      "##licate": 4100,
      "fire": 4101,
      "##Cont": 4102,
      "##Current": 4103,
      "##urrence": 4104,
      "tmp": 4105,
      "##rig": 4106,
      "getExpression": 4107,
      "install": 4108,
      "getCreateDate": 4109,
      "myS": 4110,
      "##FactoryUtil": 4111,
      "Border": 4112,
      "##ynchronization": 4113,
      "##Locator": 4114,
      "Ant": 4115,
      "##Usages": 4116,
      "Hibernate": 4117,
      "##lick": 4118,
      "hel": 4119,
      "hibernate": 4120,
      "var6public": 4121,
      "alias": 4122,
      "##OT": 4123,
      "printlntry": 4124,
      "getCaretModel": 4125,
      "##Bridge": 4126,
      "##elegation": 4127,
      "##32": 4128,
      ")\")": 4129,
      "right": 4130,
      "results": 4131,
      "Future": 4132,
      "FileStatus": 4133,
      "##uthentication": 4134,
      "Statement": 4135,
      "##rupted": 4136,
      "##eet": 4137,
      "##Shards": 4138,
      "##Graph": 4139,
      "getHeight": 4140,
      "getG": 4141,
      "0x0000000": 4142,
      "may": 4143,
      "##erged": 4144,
      "PortletPreferences": 4145,
      "##eline": 4146,
      "release": 4147,
      "}}}": 4148,
      "setVisible": 4149,
      "##Details": 4150,
      "dynamic": 4151,
      "advance": 4152,
      "DDLRecord": 4153,
      "##GroupRole": 4154,
      "FileEditor": 4155,
      "dlFileEntry": 4156,
      "##Font": 4157,
      "##Listeners": 4158,
      "getWidth": 4159,
      "att": 4160,
      "The": 4161,
      "getNext": 4162,
      "PsiJavaCodeReferenceElement": 4163,
      "KaleoTask": 4164,
      "##ural": 4165,
      "use": 4166,
      "##wing": 4167,
      "##achment": 4168,
      "payload": 4169,
      "##ustering": 4170,
      "Directory": 4171,
      "AR": 4172,
      "##sList": 4173,
      "##VInt": 4174,
      "##anceled": 4175,
      "##Sibling": 4176,
      "##Between": 4177,
      "Fs": 4178,
      "ejb": 4179,
      "##centLayout": 4180,
      "prepareSearch": 4181,
      "userId": 4182,
      "##hip": 4183,
      "##ollback": 4184,
      "##agingElement": 4185,
      "EnumSet": 4186,
      "transform": 4187,
      "required": 4188,
      ".\"": 4189,
      "##LowerCase": 4190,
      "invokeLater": 4191,
      "##ManagerImpl": 4192,
      "##Sync": 4193,
      "SessionImplementor": 4194,
      "Execution": 4195,
      "getConfiguration": 4196,
      "getHits": 4197,
      "##ansition": 4198,
      "var56": 4199,
      "children": 4200,
      "GridBag": 4201,
      "##atform": 4202,
      "##redential": 4203,
      "##chor": 4204,
      "##Fe": 4205,
      "##_PAT": 4206,
      "SSTable": 4207,
      "##ynt": 4208,
      "##ulate": 4209,
      "nextInt": 4210,
      "##xx": 4211,
      "##sIn": 4212,
      "Pattern": 4213,
      "getParameters": 4214,
      "##oder": 4215,
      "Server": 4216,
      "##Cla": 4217,
      "yy": 4218,
      "Connector": 4219,
      "##iction": 4220,
      "##uggest": 4221,
      "MouseEvent": 4222,
      "##ij": 4223,
      "##Bounds": 4224,
      "getScope": 4225,
      "setCreateDate": 4226,
      "Le": 4227,
      "getCPtr": 4228,
      "conc": 4229,
      "Not": 4230,
      "Organization": 4231,
      "pattern": 4232,
      "##ByFile": 4233,
      "folder": 4234,
      "TestBean": 4235,
      "(\"[": 4236,
      "##Runnable": 4237,
      "Gradle": 4238,
      "##oci": 4239,
      "##eprec": 4240,
      "getElementType": 4241,
      "Metadata": 4242,
      "args": 4243,
      "##Jar": 4244,
      "##ified": 4245,
      "##edia": 4246,
      "##search": 4247,
      "##ient": 4248,
      "##Y_": 4249,
      "var7public": 4250,
      "##AndGet": 4251,
      "workflow": 4252,
      "INode": 4253,
      "notify": 4254,
      "XmlAttribute": 4255,
      "red": 4256,
      "Trash": 4257,
      "##gle": 4258,
      "##tf": 4259,
      "XmlFile": 4260,
      "Ed": 4261,
      "Buffered": 4262,
      "ActionListener": 4263,
      "##ABLE": 4264,
      "##sTo": 4265,
      "label": 4266,
      "snapshot": 4267,
      "##11": 4268,
      "MBThread": 4269,
      "##Disposed": 4270,
      "Lock": 4271,
      "##Full": 4272,
      "Cvs": 4273,
      "##Serializer": 4274,
      "##utation": 4275,
      "Extension": 4276,
      "##Soft": 4277,
      "##Summary": 4278,
      "\"})": 4279,
      "socialActivity": 4280,
      "getSimple": 4281,
      "PsiArray": 4282,
      "Image": 4283,
      "##Tests": 4284,
      "##Members": 4285,
      "##ModifierList": 4286,
      "##vm": 4287,
      "##IME": 4288,
      "]))": 4289,
      "myD": 4290,
      "##uplicate": 4291,
      "##Columns": 4292,
      "getAnnotation": 4293,
      "total": 4294,
      "##ared": 4295,
      "##ability": 4296,
      "##atable": 4297,
      "##Indent": 4298,
      "setUserId": 4299,
      "##scape": 4300,
      "tx": 4301,
      "non": 4302,
      "##acy": 4303,
      "ProgressIndicator": 4304,
      "journalArticle": 4305,
      "ARRAY": 4306,
      "ph": 4307,
      "##ImportConfiguration": 4308,
      "##Hit": 4309,
      "Storage": 4310,
      "setModifiedDate": 4311,
      "getSize": 4312,
      "wrap": 4313,
      "Source": 4314,
      "actual": 4315,
      "##Started": 4316,
      "##Extr": 4317,
      "##Cast": 4318,
      "##FriendlyURL": 4319,
      "createFile": 4320,
      "getMet": 4321,
      "ActionEvent": 4322,
      "dat": 4323,
      "Wr": 4324,
      "##anonical": 4325,
      "##QuickFix": 4326,
      "##Console": 4327,
      "##upported": 4328,
      "fill": 4329,
      "##ne": 4330,
      "getUserName": 4331,
      "setup": 4332,
      "VALU": 4333,
      "##IsSet": 4334,
      "unmodifiable": 4335,
      "Dependency": 4336,
      "getTask": 4337,
      "sync": 4338,
      "##ls": 4339,
      "##LL": 4340,
      "##_1": 4341,
      "Json": 4342,
      "setPrimaryKey": 4343,
      "Disposer": 4344,
      "FileType": 4345,
      "ExternalSystem": 4346,
      "GrMethod": 4347,
      "##OrderEntry": 4348,
      "AND": 4349,
      "Li": 4350,
      "##straint": 4351,
      "##ced": 4352,
      "##ride": 4353,
      "##ocated": 4354,
      "HighlightInfo": 4355,
      "Parse": 4356,
      "Qu": 4357,
      "##ssoci": 4358,
      "##Float": 4359,
      "##ServiceUtil": 4360,
      "assign": 4361,
      "package": 4362,
      "##roke": 4363,
      "Access": 4364,
      "PsiBuilder": 4365,
      "##Blocks": 4366,
      "##AG": 4367,
      "##resentable": 4368,
      "##AssignmentExpression": 4369,
      "##Vocabulary": 4370,
      "##Initialized": 4371,
      "##((": 4372,
      "getOffset": 4373,
      "currentThread": 4374,
      "scope": 4375,
      "MavenProject": 4376,
      "##uthor": 4377,
      "extension": 4378,
      "createS": 4379,
      "expando": 4380,
      "##maining": 4381,
      "Failed": 4382,
      "##Exprent": 4383,
      "getMax": 4384,
      "##NewExpression": 4385,
      "intValue": 4386,
      "UUID": 4387,
      "##Groups": 4388,
      "##leted": 4389,
      ">,": 4390,
      "##Original": 4391,
      "AssetEntry": 4392,
      "Geo": 4393,
      "Sdk": 4394,
      "##ta": 4395,
      "support": 4396,
      "30": 4397,
      "enc": 4398,
      "num": 4399,
      "##YP": 4400,
      "setColor": 4401,
      "Idea": 4402,
      "##_N": 4403,
      "##parator": 4404,
      "##_d": 4405,
      "##LiteralExpression": 4406,
      "Consumer": 4407,
      "getTokenType": 4408,
      "##Feed": 4409,
      "ui": 4410,
      "Channel": 4411,
      "##BinaryExpression": 4412,
      "original": 4413,
      "primary": 4414,
      "];": 4415,
      "##valuation": 4416,
      "##Remove": 4417,
      "##Edge": 4418,
      "Page": 4419,
      "Print": 4420,
      "##adoop": 4421,
      "[])": 4422,
      "##ATION": 4423,
      "##nnotated": 4424,
      "MockHttpServletRequest": 4425,
      "Count": 4426,
      "Stat": 4427,
      "##Chain": 4428,
      "Social": 4429,
      "isWarn": 4430,
      "given": 4431,
      "##jector": 4432,
      "Bucket": 4433,
      "##Cre": 4434,
      "##UserData": 4435,
      "##ableFuture": 4436,
      "##aries": 4437,
      "##sManager": 4438,
      "##Caret": 4439,
      "##gs": 4440,
      "PsiManager": 4441,
      "getLog": 4442,
      "##====": 4443,
      "##99": 4444,
      "][": 4445,
      "##icro": 4446,
      "##ivery": 4447,
      "##PublishDate": 4448,
      "'%": 4449,
      "##Anonymous": 4450,
      "getLanguage": 4451,
      "QName": 4452,
      "##Batch": 4453,
      "fields": 4454,
      "JLabel": 4455,
      "each": 4456,
      "main": 4457,
      "channel": 4458,
      "paint": 4459,
      "##imum": 4460,
      "##Separator": 4461,
      "##umeration": 4462,
      "\"\\\"": 4463,
      "##Des": 4464,
      "##Tuple": 4465,
      "setTitle": 4466,
      "\"(": 4467,
      "##DE": 4468,
      "##Spaces": 4469,
      "isWarnEnabled": 4470,
      "##uration": 4471,
      "registerFunction": 4472,
      "##Generic": 4473,
      "getCause": 4474,
      "fun": 4475,
      "Hand": 4476,
      "rename": 4477,
      "val": 4478,
      "##wn": 4479,
      "##Args": 4480,
      "40": 4481,
      "getModifiedDate": 4482,
      "##sFolder": 4483,
      "##Endpoint": 4484,
      "Variable": 4485,
      "##copy": 4486,
      "TreePath": 4487,
      "##Flow": 4488,
      "randomBoolean": 4489,
      "(\"\",": 4490,
      "prepareIndex": 4491,
      "pack": 4492,
      "toLowerCase": 4493,
      "namespace": 4494,
      "equalsIgnoreCase": 4495,
      "##Events": 4496,
      "setType": 4497,
      "##moved": 4498,
      "getManager": 4499,
      "report": 4500,
      "##ThreadLocal": 4501,
      "PortletRequest": 4502,
      "notNullValue": 4503,
      "##CodeBlock": 4504,
      "##mailAddress": 4505,
      "getInteger": 4506,
      "##ito": 4507,
      "##Bound": 4508,
      "isDisposed": 4509,
      "getSimpleName": 4510,
      "post": 4511,
      "##Init": 4512,
      "##unnel": 4513,
      "##icalPosition": 4514,
      "##{\"": 4515,
      "prefix": 4516,
      "##ple": 4517,
      "##fg": 4518,
      "myM": 4519,
      "PsiDocumentManager": 4520,
      "BlogsEntry": 4521,
      "##Collision": 4522,
      "expr": 4523,
      "var55": 4524,
      "arraycopy": 4525,
      "##Ui": 4526,
      "Proxy": 4527,
      "##BeanFactory": 4528,
      "##PI": 4529,
      "##sw": 4530,
      "##ucer": 4531,
      "second": 4532,
      "getBase": 4533,
      "##_PATH": 4534,
      "PsiPackage": 4535,
      "internal": 4536,
      "##tories": 4537,
      "##20": 4538,
      "inner": 4539,
      "##Qualifier": 4540,
      "##Terms": 4541,
      "##Relation": 4542,
      "Script": 4543,
      "ImmutableMap": 4544,
      "##cluded": 4545,
      "var8public": 4546,
      "##oose": 4547,
      "schedule": 4548,
      "##ReadOnly": 4549,
      "##side": 4550,
      "Check": 4551,
      "already": 4552,
      "HttpPrincipal": 4553,
      "##type": 4554,
      "##Bus": 4555,
      "##StagedModel": 4556,
      "##entity": 4557,
      "##anner": 4558,
      "##lica": 4559,
      "Async": 4560,
      "##XML": 4561,
      "setGroupId": 4562,
      "prop": 4563,
      "##Modification": 4564,
      "##pper": 4565,
      "type1": 4566,
      "){": 4567,
      "Comparator": 4568,
      "var9public": 4569,
      "##QueryBuilder": 4570,
      "Short": 4571,
      "##ni": 4572,
      "(\"\")": 4573,
      "##EntryId": 4574,
      "##Than": 4575,
      "##Section": 4576,
      "##Core": 4577,
      "article": 4578,
      "##ByteArray": 4579,
      "##Permissions": 4580,
      "##herit": 4581,
      "missing": 4582,
      "removeAll": 4583,
      "##ging": 4584,
      "getInt": 4585,
      "var57": 4586,
      "##ClassPK": 4587,
      "randomInt": 4588,
      "##Back": 4589,
      "Condition": 4590,
      "Join": 4591,
      "##EY": 4592,
      "unexpectedElement": 4593,
      "##Formatter": 4594,
      "but": 4595,
      "per": 4596,
      "##sd": 4597,
      "##CE": 4598,
      "##Stroke": 4599,
      "nextToken": 4600,
      "Mockito": 4601,
      "Tunnel": 4602,
      "##Kind": 4603,
      "##Symbol": 4604,
      "##alled": 4605,
      "##link": 4606,
      "##Tokens": 4607,
      "##SetPrototype": 4608,
      "getFileSystem": 4609,
      "##orator": 4610,
      "##CellRenderer": 4611,
      "UserGroupInformation": 4612,
      "assertRows": 4613,
      "##Area": 4614,
      "##Family": 4615,
      "remote": 4616,
      "##Arguments": 4617,
      "PsiAnnotation": 4618,
      "getLength": 4619,
      "TunnelUtil": 4620,
      "##sser": 4621,
      "##ING": 4622,
      "de": 4623,
      "##OperationException": 4624,
      "setParameter": 4625,
      ":\")": 4626,
      "##Rest": 4627,
      "option": 4628,
      "getKaleo": 4629,
      "abc": 4630,
      "await": 4631,
      "getComp": 4632,
      "Control": 4633,
      "routingTable": 4634,
      "calc": 4635,
      "##ra": 4636,
      ");}}})": 4637,
      "isInstance": 4638,
      "progress": 4639,
      "##lib": 4640,
      "##iDFS": 4641,
      "##Ancestor": 4642,
      "Resolve": 4643,
      "##ssertion": 4644,
      "dfs": 4645,
      "##Recur": 4646,
      "##Trash": 4647,
      "##register": 4648,
      "MiniDFS": 4649,
      "Processor": 4650,
      "evaluate": 4651,
      "##Analyzer": 4652,
      "parseInt": 4653,
      "(\"{": 4654,
      "##Invalid": 4655,
      "setUp": 4656,
      "##Browser": 4657,
      "##unning": 4658,
      "scroll": 4659,
      "##supported": 4660,
      "ddmStructure": 4661,
      "##Success": 4662,
      "##FileShortcut": 4663,
      "PyFunction": 4664,
      "Transport": 4665,
      "jsonBuilder": 4666,
      "##vis": 4667,
      "FileEntry": 4668,
      "##Ag": 4669,
      "getReturn": 4670,
      "##Validation": 4671,
      "##vccVersion": 4672,
      "##UsageInfo": 4673,
      "DLFolder": 4674,
      "some": 4675,
      "##pn": 4676,
      "##aun": 4677,
      "ProblemDescriptor": 4678,
      "OutputStream": 4679,
      "getContainer": 4680,
      "##ww": 4681,
      "Stub": 4682,
      "getExp": 4683,
      "getTemplate": 4684,
      "##ived": 4685,
      "##elegationToken": 4686,
      "Co": 4687,
      "##HelperUtil": 4688,
      "##ectories": 4689,
      "getObject": 4690,
      "Reference": 4691,
      "##Obj": 4692,
      "getOutput": 4693,
      "getExtension": 4694,
      "##ailing": 4695,
      "ign": 4696,
      "setQuery": 4697,
      "Inv": 4698,
      "that": 4699,
      "##WIG": 4700,
      "##ierarchy": 4701,
      "master": 4702,
      "##AN": 4703,
      "22": 4704,
      "##ingClass": 4705,
      "##NotFound": 4706,
      "SSTableReader": 4707,
      "##Port": 4708,
      "transaction": 4709,
      "##Messages": 4710,
      "Insets": 4711,
      "Response": 4712,
      "##NodeId": 4713,
      "getCanonical": 4714,
      "##oogle": 4715,
      "##Validator": 4716,
      "proxy": 4717,
      "setUserName": 4718,
      "Var": 4719,
      "##aa": 4720,
      "##br": 4721,
      "registry": 4722,
      "13": 4723,
      "writeTo": 4724,
      "Ar": 4725,
      "##AsString": 4726,
      "initialize": 4727,
      "(?": 4728,
      "##Transl": 4729,
      "Read": 4730,
      "##ikiNode": 4731,
      "##More": 4732,
      "myFile": 4733,
      "getError": 4734,
      "region": 4735,
      "Files": 4736,
      "##rivile": 4737,
      "##Portal": 4738,
      "##UP": 4739,
      "##Max": 4740,
      "##Right": 4741,
      "##ambd": 4742,
      "##HO": 4743,
      "getDisplay": 4744,
      "##Question": 4745,
      "##Begin": 4746,
      "##',": 4747,
      "50": 4748,
      "DDMForm": 4749,
      "writeString": 4750,
      "##Slice": 4751,
      ";}@": 4752,
      "getTitle": 4753,
      "##umeric": 4754,
      "##Dirty": 4755,
      "##Sources": 4756,
      "##Available": 4757,
      "(\")": 4758,
      "expand": 4759,
      "##Criteria": 4760,
      "##ingContext": 4761,
      "popup": 4762,
      "##space": 4763,
      "readString": 4764,
      "##cessed": 4765,
      "##overage": 4766,
      "Update": 4767,
      "##lain": 4768,
      "##oice": 4769,
      "##OrderByComparator": 4770,
      "##uggestion": 4771,
      "PsiModifierList": 4772,
      "RadComponent": 4773,
      "##UUID": 4774,
      "##TestUtils": 4775,
      "Discovery": 4776,
      "##itional": 4777,
      "getFont": 4778,
      "available": 4779,
      "arg": 4780,
      "##_m": 4781,
      "##test": 4782,
      "##Home": 4783,
      "getFolder": 4784,
      "##wo": 4785,
      "##References": 4786,
      "inte": 4787,
      "PsiStatement": 4788,
      "##Unique": 4789,
      "##Based": 4790,
      "Incorrect": 4791,
      "findFile": 4792,
      "##ations": 4793,
      "getArgument": 4794,
      "##Exists": 4795,
      "##Clause": 4796,
      "##ambda": 4797,
      "##Binder": 4798,
      "addAction": 4799,
      "##Mappings": 4800,
      "##_bt": 4801,
      "##sBundle": 4802,
      "##lip": 4803,
      "AbstractTreeNode": 4804,
      "transport": 4805,
      "##alth": 4806,
      "##_s": 4807,
      "##ValuePair": 4808,
      "##ward": 4809,
      "##Containers": 4810,
      "##ular": 4811,
      "getTotal": 4812,
      "##CH": 4813,
      "##CacheModel": 4814,
      "Interrupted": 4815,
      "getUrl": 4816,
      "##blogsEntry": 4817,
      "##Left": 4818,
      "StreamInput": 4819,
      "Registry": 4820,
      "condition": 4821,
      "##AX": 4822,
      "Polls": 4823,
      "getCache": 4824,
      "PsiSubstitutor": 4825,
      "##Compile": 4826,
      "##igest": 4827,
      "generator": 4828,
      "DomElement": 4829,
      "_m": 4830,
      "##Arr": 4831,
      "getMin": 4832,
      "point": 4833,
      "##SERT": 4834,
      "getRequest": 4835,
      ">\",": 4836,
      "Rel": 4837,
      "##Inc": 4838,
      "INSERT": 4839,
      "renderer": 4840,
      "Persistent": 4841,
      "?,": 4842,
      "Pack": 4843,
      "scheduler": 4844,
      "getXml": 4845,
      "(\"</": 4846,
      "Arrangement": 4847,
      "enable": 4848,
      "##Finished": 4849,
      "##Random": 4850,
      "##aller": 4851,
      "wikiPage": 4852,
      "##vice": 4853,
      "Concurrent": 4854,
      "Interceptor": 4855,
      "Create": 4856,
      "##usp": 4857,
      "##pared": 4858,
      "##ediaType": 4859,
      "5f": 4860,
      "##obuf": 4861,
      "##Patch": 4862,
      "##Interval": 4863,
      "##Mark": 4864,
      "getParameterList": 4865,
      "##Background": 4866,
      "unlock": 4867,
      "Facet": 4868,
      "\"\",": 4869,
      "getClassPK": 4870,
      "##NotificationEvent": 4871,
      "MiniDFSCluster": 4872,
      "cmd": 4873,
      "##De": 4874,
      "Could": 4875,
      "##redentials": 4876,
      "cast": 4877,
      "social": 4878,
      "##Calendar": 4879,
      "##ank": 4880,
      "##IfN": 4881,
      "##RevisionNumber": 4882,
      "done": 4883,
      "Dynamics": 4884,
      "Notification": 4885,
      "##Used": 4886,
      "Output": 4887,
      "##Throw": 4888,
      "##embers": 4889,
      "##ale": 4890,
      "appendOrderByComparator": 4891,
      "OperationContext": 4892,
      "runn": 4893,
      "00": 4894,
      "nested": 4895,
      "##Modified": 4896,
      "##pped": 4897,
      "##ictionary": 4898,
      "##vt": 4899,
      "var58": 4900,
      "42": 4901,
      "Queue": 4902,
      "DataNode": 4903,
      "##ied": 4904,
      "##ersisted": 4905,
      "ServletContext": 4906,
      "edit": 4907,
      "();}}}": 4908,
      "Liferay": 4909,
      "##Wildcard": 4910,
      "executor": 4911,
      "py": 4912,
      "18": 4913,
      "##sStats": 4914,
      "CRE": 4915,
      "XmlElement": 4916,
      "image": 4917,
      "##group": 4918,
      "All": 4919,
      "##user": 4920,
      "createDate": 4921,
      "##heritor": 4922,
      "##erialized": 4923,
      "{}\",": 4924,
      "terms": 4925,
      "Snapshot": 4926,
      "VALUES": 4927,
      "google": 4928,
      "##ump": 4929,
      "Dist": 4930,
      "getProperties": 4931,
      "MultiMap": 4932,
      "attempt": 4933,
      "include": 4934,
      "##Refresh": 4935,
      "##spect": 4936,
      "Domain": 4937,
      "ContainerId": 4938,
      "##_p": 4939,
      "##SQLFunction": 4940,
      "visitor": 4941,
      "concat": 4942,
      "getOrderBy": 4943,
      "FIND": 4944,
      "getView": 4945,
      "##ecret": 4946,
      "##ED": 4947,
      "AssetTag": 4948,
      "Writable": 4949,
      "INTO": 4950,
      "Security": 4951,
      "checkArgument": 4952,
      "##alEvent": 4953,
      "##ER_PATH": 4954,
      "##col": 4955,
      "addElement": 4956,
      "##Br": 4957,
      "getHost": 4958,
      "##Bucket": 4959,
      "##ariant": 4960,
      "setExp": 4961,
      "##ally": 4962,
      "Tuple": 4963,
      "##Recursi": 4964,
      "##Refactoring": 4965,
      "simple": 4966,
      "##()": 4967,
      "##Composite": 4968,
      "Company": 4969,
      "FINDER_PATH": 4970,
      "Mat": 4971,
      "##Delivery": 4972,
      "##ableActionableDynamicQuery": 4973,
      "##ssion": 4974,
      "##inct": 4975,
      "17": 4976,
      "##Insert": 4977,
      "##Struct": 4978,
      "##eeded": 4979,
      "##XContent": 4980,
      "access": 4981,
      "compile": 4982,
      "##CodeStyle": 4983,
      "##;}}": 4984,
      "##Wait": 4985,
      "##cussion": 4986,
      "##begin": 4987,
      "setBorder": 4988,
      "Plan": 4989,
      "DynamicsJNI": 4990,
      "##Word": 4991,
      "modifiedDate": 4992,
      "controller": 4993,
      "##Tx": 4994,
      "())))": 4995,
      "unmodifiableList": 4996,
      "Dfa": 4997,
      "Workflow": 4998,
      "Marker": 4999,
      "View": 5000,
      "##to": 5001,
      "newArrayList": 5002,
      "only": 5003,
      "CREATE": 5004,
      "rw": 5005,
      "yybegin": 5006,
      "##Parenthes": 5007,
      "##SocketAddress": 5008,
      "ResourceBundle": 5009,
      "getBody": 5010,
      "getAs": 5011,
      "##Operations": 5012,
      "##lap": 5013,
      "##dx": 5014,
      "setIcon": 5015,
      "##WhiteSpace": 5016,
      "##EN": 5017,
      "Native": 5018,
      "Ph": 5019,
      "getPosition": 5020,
      "unregister": 5021,
      "##FileName": 5022,
      "Parser": 5023,
      "DataInput": 5024,
      "##Num": 5025,
      "##aunch": 5026,
      "Render": 5027,
      "getRole": 5028,
      "VcsException": 5029,
      "##Candidate": 5030,
      "classes": 5031,
      "/\"": 5032,
      "delegate": 5033,
      "fieldType": 5034,
      "getDeclared": 5035,
      "##Chunk": 5036,
      "protobuf": 5037,
      "##wingUtilities": 5038,
      "##64": 5039,
      "##Pass": 5040,
      "##Insn": 5041,
      "##rod": 5042,
      "##ipient": 5043,
      "##ng": 5044,
      "top": 5045,
      "##Safe": 5046,
      "##Rect": 5047,
      "##ture": 5048,
      "##Highlight": 5049,
      "getAt": 5050,
      "gre": 5051,
      "(\"-->": 5052,
      "##yper": 5053,
      "##Consumer": 5054,
      "()+": 5055,
      "##AnonymousClass": 5056,
      "company": 5057,
      "bookmark": 5058,
      "##Present": 5059,
      "Package": 5060,
      "##Primary": 5061,
      "addAttr": 5062,
      "candidate": 5063,
      "##Py": 5064,
      "PsiNewExpression": 5065,
      "connect": 5066,
      ":\"": 5067,
      "##ayer": 5068,
      "##Components": 5069,
      "##icroblogsEntry": 5070,
      "Descri": 5071,
      "StringBuffer": 5072,
      "14": 5073,
      "##ux": 5074,
      "##Password": 5075,
      "##ClassNameId": 5076,
      "##OK": 5077,
      "Find": 5078,
      "schema": 5079,
      "##ActionGroup": 5080,
      "metaData": 5081,
      "Qualified": 5082,
      "var10public": 5083,
      "willReturn": 5084,
      "##Deletion": 5085,
      "hadoop": 5086,
      "##Lexer": 5087,
      "Address": 5088,
      "restore": 5089,
      "##RequestException": 5090,
      "idx": 5091,
      "##mall": 5092,
      "##ero": 5093,
      "kaleoTask": 5094,
      "##Highlighting": 5095,
      "Up": 5096,
      "##ithub": 5097,
      "##oreground": 5098,
      "readInt": 5099,
      "##ookie": 5100,
      "##Errors": 5101,
      "holder": 5102,
      "+\"<": 5103,
      "##ImportStatement": 5104,
      "##Synchronization": 5105,
      "XContentBuilder": 5106,
      "Convert": 5107,
      "locate": 5108,
      "##Latch": 5109,
      "trash": 5110,
      "##tex": 5111,
      "##vg": 5112,
      "##avigation": 5113,
      "rs": 5114,
      "Copy": 5115,
      "##licts": 5116,
      "_get": 5117,
      "pool": 5118,
      "##Fs": 5119,
      "Parent": 5120,
      "Python": 5121,
      "Load": 5122,
      "##Merge": 5123,
      "field1": 5124,
      "Person": 5125,
      "comment": 5126,
      "v1": 5127,
      "##Find": 5128,
      "##RM": 5129,
      "setContent": 5130,
      "copyOf": 5131,
      "InterruptedException": 5132,
      "##Execute": 5133,
      "He": 5134,
      "##Render": 5135,
      "##avor": 5136,
      "##ersistedModel": 5137,
      "##Master": 5138,
      "DateTime": 5139,
      "##RequestBuilder": 5140,
      "##Inner": 5141,
      "##Decimal": 5142,
      "TException": 5143,
      "XPath": 5144,
      "##vc": 5145,
      "getDataContext": 5146,
      "singletonList": 5147,
      "##Dirs": 5148,
      "Pr": 5149,
      "getPl": 5150,
      "TIME": 5151,
      "Mapping": 5152,
      "##lict": 5153,
      "##atal": 5154,
      "());}})": 5155,
      "##ulk": 5156,
      "TABLE": 5157,
      "Al": 5158,
      "EntityManager": 5159,
      "##avorite": 5160,
      "used": 5161,
      "24": 5162,
      "##TER": 5163,
      "myBuilder": 5164,
      "getPresentable": 5165,
      "Runner": 5166,
      "##road": 5167,
      "##mbed": 5168,
      "##OU": 5169,
      "##AV": 5170,
      "##odo": 5171,
      "SwingUtilities": 5172,
      "dom": 5173,
      "##ift": 5174,
      "BorderLayout": 5175,
      "active": 5176,
      "getSelectionModel": 5177,
      "##Allowed": 5178,
      "##Lines": 5179,
      "Option": 5180,
      "color": 5181,
      "##Decorator": 5182,
      "PermissionChecker": 5183,
      "##OM": 5184,
      "getElementFactory": 5185,
      "##ulator": 5186,
      "##Exit": 5187,
      "BytesRef": 5188,
      "##eetup": 5189,
      "getPermissionChecker": 5190,
      "window": 5191,
      "##host": 5192,
      "##ElementVisitor": 5193,
      "##egacy": 5194,
      "[%": 5195,
      "now": 5196,
      "##IfStatement": 5197,
      "##Operator": 5198,
      "##Requests": 5199,
      "userName": 5200,
      "RootBeanDefinition": 5201,
      "##Menu": 5202,
      "Sorted": 5203,
      "##AST": 5204,
      "JSONObject": 5205,
      "Binding": 5206,
      "addAttribute": 5207,
      "hdfs": 5208,
      "##istog": 5209,
      "());}}": 5210,
      "##istogram": 5211,
      "addParameter": 5212,
      "127": 5213,
      "##tip": 5214,
      "##Phase": 5215,
      "THashSet": 5216,
      "##ise": 5217,
      "Initial": 5218,
      "full": 5219,
      "##stanti": 5220,
      ";\"))": 5221,
      "eq": 5222,
      "##_W": 5223,
      "Disposable": 5224,
      "Handler": 5225,
      "myList": 5226,
      "##AS": 5227,
      "Matcher": 5228,
      "##view": 5229,
      "ActionableDynamicQuery": 5230,
      "##mx": 5231,
      "##idd": 5232,
      "##NotFoundException": 5233,
      "var59": 5234,
      "MBCategory": 5235,
      "##add": 5236,
      "##Modules": 5237,
      "##ggregator": 5238,
      "##SoftBody": 5239,
      "##lex": 5240,
      "##ighlighter": 5241,
      "tab": 5242,
      "##unc": 5243,
      "##This": 5244,
      "##Matches": 5245,
      "batch": 5246,
      "##Extended": 5247,
      "##Variables": 5248,
      "SearchContext": 5249,
      "##Jdk": 5250,
      "##MS": 5251,
      "##ective": 5252,
      "(\"%": 5253,
      "##TestEntity": 5254,
      "##IO": 5255,
      "setUuid": 5256,
      ");}@": 5257,
      "##agram": 5258,
      "Inline": 5259,
      "Resol": 5260,
      "('\\": 5261,
      "##NamedElement": 5262,
      "##Predicate": 5263,
      "##rar": 5264,
      "getRepository": 5265,
      "security": 5266,
      "work": 5267,
      "##cast": 5268,
      "isC": 5269,
      "##efined": 5270,
      "\");}}": 5271,
      "InetSocketAddress": 5272,
      "LocaleUtil": 5273,
      "getRow": 5274,
      "PsiArrayType": 5275,
      "##colate": 5276,
      "Permission": 5277,
      "##format": 5278,
      "previous": 5279,
      "dependency": 5280,
      "##ze": 5281,
      "Unknown": 5282,
      "Management": 5283,
      "getTextLength": 5284,
      "Announce": 5285,
      "##Do": 5286,
      "var62": 5287,
      "getPreferredSize": 5288,
      "Leaf": 5289,
      "am": 5290,
      "##Security": 5291,
      "##pdater": 5292,
      "resetOriginal": 5293,
      "exit": 5294,
      "our": 5295,
      "LOGGER": 5296,
      "resetOriginalValues": 5297,
      "##ToolWindow": 5298,
      "##bb": 5299,
      "##30": 5300,
      "##elf": 5301,
      "ws": 5302,
      "var11public": 5303,
      "##ipeline": 5304,
      "1234": 5305,
      "BigInteger": 5306,
      "##Single": 5307,
      "MDRRuleGroup": 5308,
      "Keys": 5309,
      "Sync": 5310,
      "##_0": 5311,
      "##bed": 5312,
      "substit": 5313,
      "PortletDataContext": 5314,
      "TreeNode": 5315,
      "category": 5316,
      "##Upper": 5317,
      "##TestBean": 5318,
      "getActive": 5319,
      "##pted": 5320,
      "##Simple": 5321,
      "br": 5322,
      "orderByComparator": 5323,
      "##uffix": 5324,
      "var63": 5325,
      "##FieldType": 5326,
      "##LocalVariable": 5327,
      "##irect": 5328,
      "##;}})": 5329,
      "##Without": 5330,
      "[]{\"": 5331,
      "getOrderByFields": 5332,
      "maybe": 5333,
      "getResponse": 5334,
      "##Rece": 5335,
      "##Subsystem": 5336,
      "AbstractType": 5337,
      "constructor": 5338,
      "db": 5339,
      "PyType": 5340,
      "Mutable": 5341,
      "getX": 5342,
      "var60": 5343,
      "##DataProvider": 5344,
      "##sisten": 5345,
      "##sistency": 5346,
      "##Filters": 5347,
      "##VirtualFile": 5348,
      "##Prod": 5349,
      "readUTF": 5350,
      "GridBagConstraints": 5351,
      "##Coordin": 5352,
      "Vfs": 5353,
      "button": 5354,
      "##uspend": 5355,
      "disp": 5356,
      "##rimitiveType": 5357,
      "setModel": 5358,
      "writeInt": 5359,
      "Unsupported": 5360,
      "getQualifier": 5361,
      "Callable": 5362,
      "##Classpath": 5363,
      "Target": 5364,
      "TInt": 5365,
      "ApplicationId": 5366,
      "PsiAssignmentExpression": 5367,
      "##Scop": 5368,
      "##Dispatch": 5369,
      "##Admin": 5370,
      "##erList": 5371,
      "btV": 5372,
      "PsiJavaFile": 5373,
      "Write": 5374,
      "\\\\": 5375,
      "##ributed": 5376,
      "_d": 5377,
      "\")),": 5378,
      "##vy": 5379,
      "##Flush": 5380,
      "##ChangeListener": 5381,
      "MavenDom": 5382,
      "InvalidRequestException": 5383,
      "##Enc": 5384,
      "Record": 5385,
      "Committed": 5386,
      "Reg": 5387,
      "##NS": 5388,
      "##Closed": 5389,
      "##Json": 5390,
      "##etry": 5391,
      "test1": 5392,
      "##ibility": 5393,
      "library": 5394,
      "repo": 5395,
      "##gments": 5396,
      "##Watch": 5397,
      "getOwner": 5398,
      "##uditReader": 5399,
      "greater": 5400,
      "##rink": 5401,
      "expect": 5402,
      "##Tags": 5403,
      "getComm": 5404,
      "##Cursor": 5405,
      "tasks": 5406,
      "Executor": 5407,
      "getNum": 5408,
      "var65": 5409,
      "Stack": 5410,
      "Partition": 5411,
      "##ou": 5412,
      "##mport": 5413,
      "putUserData": 5414,
      "##oldRegion": 5415,
      ">\\": 5416,
      "Fr": 5417,
      "setSize": 5418,
      "setDefault": 5419,
      "hasMore": 5420,
      "##actor": 5421,
      "##uff": 5422,
      "##RootManager": 5423,
      "##PortalCache": 5424,
      "getLocation": 5425,
      "Unexpected": 5426,
      "serialize": 5427,
      "Constructor": 5428,
      "TProtocol": 5429,
      "clusterState": 5430,
      "getNew": 5431,
      "##FamilyStore": 5432,
      "font": 5433,
      "##Lab": 5434,
      "##ootstr": 5435,
      "SessionFactory": 5436,
      "]\",": 5437,
      "putAll": 5438,
      "GrVariable": 5439,
      "ST": 5440,
      "##Encoding": 5441,
      "Shrink": 5442,
      "setLast": 5443,
      "definition": 5444,
      "getFactory": 5445,
      "##UnitTest": 5446,
      "addDependency": 5447,
      "##Callable": 5448,
      "cleanup": 5449,
      "ShrinkWrap": 5450,
      "BackgroundTask": 5451,
      "isEmptyOr": 5452,
      "##ym": 5453,
      "##Account": 5454,
      "##Raw": 5455,
      "##ndi": 5456,
      "createType": 5457,
      "='": 5458,
      "##_in": 5459,
      "##ific": 5460,
      "assetEntry": 5461,
      "getDB": 5462,
      "member": 5463,
      "getServlet": 5464,
      "getOr": 5465,
      "rece": 5466,
      "##TableName": 5467,
      "##vh": 5468,
      "##Accessible": 5469,
      "()])": 5470,
      "##Transition": 5471,
      "##lastic": 5472,
      "##sig": 5473,
      "##yntax": 5474,
      "##ToString": 5475,
      "##14": 5476,
      "##ffect": 5477,
      "StandardSQLFunction": 5478,
      "isFile": 5479,
      "##Compiler": 5480,
      "been": 5481,
      "##Gu": 5482,
      "##ired": 5483,
      "##pi": 5484,
      "##anged": 5485,
      "GrType": 5486,
      "##Chars": 5487,
      "setA": 5488,
      "##etwork": 5489,
      "##rigger": 5490,
      "##aj": 5491,
      "getAtt": 5492,
      "##ifier": 5493,
      "##rivileged": 5494,
      "capture": 5495,
      "writeBoolean": 5496,
      "Writer": 5497,
      "\"[": 5498,
      "Ad": 5499,
      "##rs": 5500,
      "Keyspace": 5501,
      "\"</": 5502,
      "##Choice": 5503,
      "##ourse": 5504,
      "##Select": 5505,
      "isEmptyOrSpaces": 5506,
      "success": 5507,
      "##fl": 5508,
      "setNew": 5509,
      "##Min": 5510,
      "##bm": 5511,
      "GrC": 5512,
      "##Added": 5513,
      "##lasticsearch": 5514,
      "ActionRequest": 5515,
      "##ci": 5516,
      "searchResponse": 5517,
      "##rix": 5518,
      "setLayout": 5519,
      "MediaType": 5520,
      "binary": 5521,
      "rule": 5522,
      "##Click": 5523,
      "##Leaf": 5524,
      "##Optional": 5525,
      "Intention": 5526,
      "mapper": 5527,
      "##Mo": 5528,
      "##IndexOf": 5529,
      "##cludes": 5530,
      "##sight": 5531,
      "##Repo": 5532,
      "headers": 5533,
      "randomIntBetween": 5534,
      "PsiDoc": 5535,
      "19": 5536,
      "Hel": 5537,
      "nan": 5538,
      "addChild": 5539,
      "DeploymentUnit": 5540,
      "attributeValue": 5541,
      "##ency": 5542,
      "problem": 5543,
      "##ysical": 5544,
      "##amework": 5545,
      "constant": 5546,
      "##Framework": 5547,
      "unexpectedAttribute": 5548,
      "drop": 5549,
      "##Annotations": 5550,
      "RE": 5551,
      "##Sql": 5552,
      "##mploy": 5553,
      "##ModelAttribute": 5554,
      "##InfoImpl": 5555,
      "ps": 5556,
      "##Matching": 5557,
      "80": 5558,
      "##oss": 5559,
      "longValue": 5560,
      "Projection": 5561,
      "getFirstChild": 5562,
      "ShoppingItem": 5563,
      "Principal": 5564,
      "()+\"": 5565,
      "AS": 5566,
      "##Second": 5567,
      "##ManagerEx": 5568,
      "2001": 5569,
      "uri": 5570,
      "Cl": 5571,
      "Open": 5572,
      "obj": 5573,
      "##Ignored": 5574,
      "supported": 5575,
      "password": 5576,
      "##Insight": 5577,
      "addActionListener": 5578,
      "10000": 5579,
      "XContentFactory": 5580,
      "##Getter": 5581,
      "##yperlink": 5582,
      "60": 5583,
      "##hs": 5584,
      "var61": 5585,
      "##}\")": 5586,
      "BookmarksEntry": 5587,
      "Vis": 5588,
      "JournalFolder": 5589,
      "##holder": 5590,
      "##ceed": 5591,
      "(\"'": 5592,
      "++)": 5593,
      "##ailingList": 5594,
      "fix": 5595,
      "getSt": 5596,
      "resolveModelAttribute": 5597,
      "##ColumnHandle": 5598,
      "deploymentUnit": 5599,
      "bundle": 5600,
      "##LanguageId": 5601,
      "Hive": 5602,
      "##Mouse": 5603,
      "##Each": 5604,
      "XD": 5605,
      "##part": 5606,
      "runtime": 5607,
      "ProgressManager": 5608,
      "##valuationContext": 5609,
      "entries": 5610,
      "vcs": 5611,
      "getEvent": 5612,
      "\"/\"": 5613,
      "findByPrimaryKey": 5614,
      "##body": 5615,
      "##etty": 5616,
      "setInt": 5617,
      "Persistence": 5618,
      "##Manifest": 5619,
      "ddmTemplate": 5620,
      "##****": 5621,
      "Compiler": 5622,
      "down": 5623,
      "##Io": 5624,
      "##ootstrap": 5625,
      "'\",": 5626,
      "Inner": 5627,
      "Texture": 5628,
      "getQuery": 5629,
      "CalendarBooking": 5630,
      "Graphics2D": 5631,
      "}\",": 5632,
      "##Codec": 5633,
      "submit": 5634,
      "Format": 5635,
      "Modifiable": 5636,
      "ResultSet": 5637,
      "Com": 5638,
      ";}}}": 5639,
      "##tf8": 5640,
      "getNamespace": 5641,
      "limit": 5642,
      "getTestName": 5643,
      "getReturnType": 5644,
      "##...": 5645,
      "organization": 5646,
      "Acl": 5647,
      "runWrite": 5648,
      "PsiExpressionStatement": 5649,
      "remaining": 5650,
      "allow": 5651,
      "JobConf": 5652,
      "##ict": 5653,
      "OR": 5654,
      "##StreamReader": 5655,
      "##ggregations": 5656,
      "checkResult": 5657,
      "binding": 5658,
      "getSuper": 5659,
      "lastIndexOf": 5660,
      "##tact": 5661,
      "();}@": 5662,
      "getSecond": 5663,
      "rollback": 5664,
      "##Generation": 5665,
      "execution": 5666,
      "##Discussion": 5667,
      "##swer": 5668,
      "global": 5669,
      "PsiAnonymousClass": 5670,
      "##ccurrence": 5671,
      "ToolWindow": 5672,
      "##args": 5673,
      "mdr": 5674,
      "##Segment": 5675,
      "dist": 5676,
      "##ndo": 5677,
      "Mod": 5678,
      "##uch": 5679,
      "##riction": 5680,
      "##Supported": 5681,
      "getPsiElement": 5682,
      "##iag": 5683,
      "Det": 5684,
      "##Anchor": 5685,
      "KEY": 5686,
      "Vector": 5687,
      "peek": 5688,
      "Extended": 5689,
      "ChangeList": 5690,
      ")]": 5691,
      "##Running": 5692,
      "writeField": 5693,
      "ide": 5694,
      "setString": 5695,
      "##Recipient": 5696,
      "substitute": 5697,
      "JD": 5698,
      "DB": 5699,
      "##abric": 5700,
      "gradle": 5701,
      "columns": 5702,
      "addContent": 5703,
      "getOriginalGroupId": 5704,
      "jsp": 5705,
      "##':": 5706,
      "pair": 5707,
      "##_res": 5708,
      "showError": 5709,
      "RefactoringBundle": 5710,
      "PsiNamedElement": 5711,
      "##arshall": 5712,
      "CodeStyleSettings": 5713,
      "nullValue": 5714,
      "##rag": 5715,
      "findElement": 5716,
      "getAdd": 5717,
      "isNew": 5718,
      "BigDecimal": 5719,
      "##2d": 5720,
      "mbMessage": 5721,
      "Framework": 5722,
      "##ume": 5723,
      "##lers": 5724,
      "addCell": 5725,
      "errors": 5726,
      "complete": 5727,
      "']": 5728,
      "##Locale": 5729,
      "ApplicationAttemptId": 5730,
      "##Documents": 5731,
      "isInterface": 5732,
      "delet": 5733,
      "getJob": 5734,
      "##ison": 5735,
      "QualifiedName": 5736,
      "offset": 5737,
      "##ott": 5738,
      "##Replication": 5739,
      "psiClass": 5740,
      "del": 5741,
      "getJava": 5742,
      "var12public": 5743,
      "LocalResource": 5744,
      "getAttributes": 5745,
      "##Configur": 5746,
      "##--------": 5747,
      "btVector3": 5748,
      "Elasticsearch": 5749,
      "binder": 5750,
      "maven": 5751,
      "##Dialect": 5752,
      "##Relative": 5753,
      "##PropertyName": 5754,
      "NU": 5755,
      "##_SWIG": 5756,
      "_w": 5757,
      "myTable": 5758,
      "Enumeration": 5759,
      "enabled": 5760,
      "Member": 5761,
      "##iver": 5762,
      "HH": 5763,
      "##tl": 5764,
      "isAncestor": 5765,
      "DataSource": 5766,
      "artifactId": 5767,
      "persistence": 5768,
      "##TE": 5769,
      "getAuditReader": 5770,
      "##rip": 5771,
      "##56": 5772,
      "##Health": 5773,
      "btCollision": 5774,
      "usage": 5775,
      "##Expand": 5776,
      "fileEntry": 5777,
      "psiElement": 5778,
      "##Weight": 5779,
      "Edit": 5780,
      "##Ranges": 5781,
      "##larm": 5782,
      "BookmarksFolder": 5783,
      "Single": 5784,
      "##eep": 5785,
      "isInitialized": 5786,
      "getDir": 5787,
      "ByteArrayOutputStream": 5788,
      "hasDefined": 5789,
      "env": 5790,
      "##Detector": 5791,
      "ID": 5792,
      "Yarn": 5793,
      "##Bl": 5794,
      "##paredStatement": 5795,
      "UT": 5796,
      "##adoc": 5797,
      "ServiceReference": 5798,
      "Cached": 5799,
      "configureByFile": 5800,
      "##Li": 5801,
      "##Cp": 5802,
      "##Deleted": 5803,
      "##edi": 5804,
      "##_v": 5805,
      "DataOutput": 5806,
      "CF": 5807,
      "normal": 5808,
      "##heritance": 5809,
      "##Destination": 5810,
      "##Js": 5811,
      "Merge": 5812,
      "##raries": 5813,
      "Config": 5814,
      "storage": 5815,
      "##Builders": 5816,
      "marker": 5817,
      "##andra": 5818,
      "##assandra": 5819,
      "##WildcardType": 5820,
      "btSoftBody": 5821,
      "01": 5822,
      "##by": 5823,
      "##El": 5824,
      "##avadoc": 5825,
      "PsiPoly": 5826,
      "icon": 5827,
      "dlFolder": 5828,
      "same": 5829,
      "LanguageLevel": 5830,
      "##atural": 5831,
      "force": 5832,
      "##IST": 5833,
      "##llij": 5834,
      "_group": 5835,
      "(\"\\\"": 5836,
      "##ableBeanFactory": 5837,
      "Injected": 5838,
      "##_NAME": 5839,
      "'/": 5840,
      "##)\",": 5841,
      "##atible": 5842,
      "##null": 5843,
      "##Infos": 5844,
      "##MB": 5845,
      "failure": 5846,
      "##NotificationTemplate": 5847,
      "api": 5848,
      "ab": 5849,
      "isM": 5850,
      "track": 5851,
      "VfsUtil": 5852,
      "Folder": 5853,
      "addTo": 5854,
      "##Checksum": 5855,
      "isDefault": 5856,
      "##ReadAction": 5857,
      "Scope": 5858,
      "##PrimaryKeys": 5859,
      "##imp": 5860,
      "##Rename": 5861,
      "PyElement": 5862,
      "shards": 5863,
      "DiscoveryNode": 5864,
      "Location": 5865,
      "AssetVocabulary": 5866,
      "localhost": 5867,
      "interface": 5868,
      "getFolderId": 5869,
      "##Global": 5870,
      "##Operand": 5871,
      "##adic": 5872,
      "allocate": 5873,
      "ExportImportConfiguration": 5874,
      "Sort": 5875,
      "##FileType": 5876,
      "##AD": 5877,
      "myModel": 5878,
      "##ConfigurationSettings": 5879,
      "##Agent": 5880,
      "##kg": 5881,
      "profile": 5882,
      "23": 5883,
      "##Rb": 5884,
      "intellij": 5885,
      ")\"": 5886,
      "Ver": 5887,
      "##alk": 5888,
      "createTemp": 5889,
      "PsiExpressionList": 5890,
      "Github": 5891,
      "var64": 5892,
      "Instruction": 5893,
      "##Score": 5894,
      "RecentLayout": 5895,
      "Font": 5896,
      "ShardId": 5897,
      "##Processing": 5898,
      "##valuator": 5899,
      "##aching": 5900,
      "LocalFileSystem": 5901,
      "##spector": 5902,
      "Archive": 5903,
      "diff": 5904,
      "##Fixture": 5905,
      "##bf": 5906,
      "Light": 5907,
      "Analysis": 5908,
      "##Db": 5909,
      "2L": 5910,
      "##Variant": 5911,
      "display": 5912,
      "TypeConversion": 5913,
      "##Native": 5914,
      "##Vector": 5915,
      "##Toolbar": 5916,
      "setPre": 5917,
      "##artbe": 5918,
      "+(": 5919,
      "##Lib": 5920,
      "assertArray": 5921,
      "persister": 5922,
      "specified": 5923,
      "##Updater": 5924,
      "##Optim": 5925,
      "_dd": 5926,
      "getUserData": 5927,
      "FsPermission": 5928,
      "##artbeat": 5929,
      "c1": 5930,
      "##stable": 5931,
      "ActionManager": 5932,
      "SearchResponse": 5933,
      ">();": 5934,
      "##Dependent": 5935,
      "##bound": 5936,
      "##iagno": 5937,
      "cur": 5938,
      "##Sort": 5939,
      "PsiCodeBlock": 5940,
      "##unit": 5941,
      "##DescriptorImpl": 5942,
      "Softbody": 5943,
      "SoftbodyJNI": 5944,
      "Database": 5945,
      "##Injector": 5946,
      "deprec": 5947,
      "##cr": 5948,
      "##ses": 5949,
      "##he": 5950,
      "##rice": 5951,
      "_re": 5952,
      "##Ca": 5953,
      "##alExpression": 5954,
      "getCount": 5955,
      "Factory": 5956,
      "home": 5957,
      "getDat": 5958,
      "wrapper": 5959,
      "##_WIT": 5960,
      "##utter": 5961,
      "##Contains": 5962,
      "escape": 5963,
      "setMax": 5964,
      "RMApp": 5965,
      "Expr": 5966,
      "supports": 5967,
      "RangeHighlighter": 5968,
      "##orrup": 5969,
      "##'\"": 5970,
      "##upon": 5971,
      "##_id": 5972,
      "than": 5973,
      "unc": 5974,
      "changes": 5975,
      "MockHttpServletResponse": 5976,
      "Cell": 5977,
      "arguments": 5978,
      "##Put": 5979,
      "KaleoTaskAssignment": 5980,
      "##Stamp": 5981,
      "DefaultActionGroup": 5982,
      "DDMFormField": 5983,
      "(?,": 5984,
      "##allo": 5985,
      "ignore": 5986,
      "##JSONObject": 5987,
      "CommittedChangeList": 5988,
      "##AndConfigurationSettings": 5989,
      "Empty": 5990,
      "isUnitTest": 5991,
      "##igner": 5992,
      "Should": 5993,
      "indicator": 5994,
      "##adio": 5995,
      "Names": 5996,
      "dependencies": 5997,
      "Child": 5998,
      "NULL": 5999,
      "Non": 6000,
      "owner": 6001,
      "##CommandLine": 6002,
      "##Naming": 6003,
      "findClass": 6004,
      "##oker": 6005,
      "named": 6006,
      "unknown": 6007,
      "##ering": 6008,
      "##pr": 6009,
      "##DownLatch": 6010,
      "Spel": 6011,
      "none": 6012,
      "##VER": 6013,
      "##losing": 6014,
      "()));": 6015,
      "1f": 6016,
      "deploy": 6017,
      "myDocument": 6018,
      "findChild": 6019,
      "Hdfs": 6020,
      "back": 6021,
      "bound": 6022,
      "callback": 6023,
      "getTh": 6024,
      "##ores": 6025,
      "##FileRevision": 6026,
      "getScheme": 6027,
      "##sign": 6028,
      "##ReturnStatement": 6029,
      "fragment": 6030,
      "thrown": 6031,
      "##esh": 6032,
      "##Parenthesized": 6033,
      "myContext": 6034,
      "##EntityManager": 6035,
      "Managed": 6036,
      "meta": 6037,
      "##RunConfiguration": 6038,
      "Reader": 6039,
      "TextAttributes": 6040,
      "decode": 6041,
      "Red": 6042,
      "sstable": 6043,
      "##Organization": 6044,
      "Criteria": 6045,
      "##ges": 6046,
      "myA": 6047,
      "##erialization": 6048,
      "Select": 6049,
      "isUnitTestMode": 6050,
      "##igration": 6051,
      "30000": 6052,
      "getApp": 6053,
      "translate": 6054,
      "##Ok": 6055,
      "ServiceName": 6056,
      "fileName": 6057,
      "Batch": 6058,
      "##xis": 6059,
      "##tities": 6060,
      "##verity": 6061,
      "hide": 6062,
      "##ues": 6063,
      "createIndex": 6064,
      "##adicExpression": 6065,
      "##_2": 6066,
      "##Rt": 6067,
      "structure": 6068,
      "##Distinct": 6069,
      "##td": 6070,
      "##Mon": 6071,
      "##Can": 6072,
      "##ribution": 6073,
      "RunnerAndConfigurationSettings": 6074,
      "##sMap": 6075,
      "myHolder": 6076,
      "sessionFactory": 6077,
      "##_result": 6078,
      "_b": 6079,
      "ne": 6080,
      "getDisplayName": 6081,
      "assertArrayEquals": 6082,
      "05": 6083,
      "socket": 6084,
      "##LA": 6085,
      "TypeDescriptor": 6086,
      "##ualPosition": 6087,
      "single": 6088,
      "fc": 6089,
      "##Singleton": 6090,
      "##Transformer": 6091,
      "conn": 6092,
      "layoutRevision": 6093,
      "##Tabs": 6094,
      "jsonObject": 6095,
      "##ssociation": 6096,
      "indexableActionableDynamicQuery": 6097,
      "##Override": 6098,
      "##Records": 6099,
      "UserGroupRole": 6100,
      "##Ev": 6101,
      "##ky": 6102,
      "##Ban": 6103,
      "INF": 6104,
      "PackagingElement": 6105,
      "##roduce": 6106,
      "Rating": 6107,
      "##Hierarchy": 6108,
      "##istry": 6109,
      "##Searcher": 6110,
      "Namespace": 6111,
      "portletPreferences": 6112,
      "##mt": 6113,
      "0xff": 6114,
      "clustering": 6115,
      "##Desc": 6116,
      "##_BY_": 6117,
      "##DataProviderInstance": 6118,
      "##Rank": 6119,
      "removeBy": 6120,
      "getConnection": 6121,
      "##MailingList": 6122,
      "New": 6123,
      "##Journal": 6124,
      "Mutation": 6125,
      "##pret": 6126,
      "getPrimaryKeyObj": 6127,
      "Charset": 6128,
      "##izard": 6129,
      "))))": 6130,
      "##Character": 6131,
      "##Replic": 6132,
      "getID": 6133,
      "mod": 6134,
      "##qn": 6135,
      "isComp": 6136,
      "##ACL": 6137,
      "##Editing": 6138,
      "RO": 6139,
      "##filter": 6140,
      "getList": 6141,
      "inspection": 6142,
      "##Tokenizer": 6143,
      "##var2": 6144,
      "_portlet": 6145,
      "nn": 6146,
      "##Move": 6147,
      "IOUtils": 6148,
      "##mbedd": 6149,
      "##>\")": 6150,
      "booleanValue": 6151,
      "emptyMap": 6152,
      "##aug": 6153,
      "##leni": 6154,
      "SmartList": 6155,
      "##gram": 6156,
      "##ScrollPane": 6157,
      "##PC": 6158,
      "##quival": 6159,
      "##lenium": 6160,
      "##ks": 6161,
      "##typ": 6162,
      "##Splitter": 6163,
      "XMLExtended": 6164,
      "##_LOG": 6165,
      "##Print": 6166,
      "reg": 6167,
      "addClass": 6168,
      "()));}": 6169,
      "_dl": 6170,
      "junit": 6171,
      "##icode": 6172,
      "WikiNode": 6173,
      "##Macro": 6174,
      "getDoc": 6175,
      "##ContentSearch": 6176,
      "isTrace": 6177,
      "##signed": 6178,
      "Computable": 6179,
      "Metrics": 6180,
      "encode": 6181,
      "##Sw": 6182,
      "constr": 6183,
      "Daemon": 6184,
      "Invocation": 6185,
      "cf": 6186,
      "##Sn": 6187,
      "PsiLocalVariable": 6188,
      "forEach": 6189,
      "##Driver": 6190,
      "UTF": 6191,
      "myPanel": 6192,
      "calendarBooking": 6193,
      "##df": 6194,
      "##InspectionTool": 6195,
      "suggest": 6196,
      "##achine": 6197,
      "##Ack": 6198,
      "##tivation": 6199,
      "isNot": 6200,
      "geo": 6201,
      "##mg": 6202,
      "##Side": 6203,
      "frame": 6204,
      "instanceOf": 6205,
      "##andoBridge": 6206,
      "##qr": 6207,
      "ParseUtils": 6208,
      "##sRequest": 6209,
      "##ressor": 6210,
      "##atalog": 6211,
      "##SE": 6212,
      "##Vote": 6213,
      "Delete": 6214,
      "language": 6215,
      "email": 6216,
      "HHH": 6217,
      "GroovyPsiElement": 6218,
      "##PackagingElement": 6219,
      "greaterThan": 6220,
      "##layout": 6221,
      "getOperation": 6222,
      "IntentionAction": 6223,
      "isTraceEnabled": 6224,
      "##INT": 6225,
      "##iti": 6226,
      "##DataHandler": 6227,
      "readLine": 6228,
      "acl": 6229,
      "Indices": 6230,
      "ImmutableSet": 6231,
      "##Site": 6232,
      "##oTime": 6233,
      "getPlugin": 6234,
      "Lw": 6235,
      "DefaultList": 6236,
      "##4j": 6237,
      "getFileStatus": 6238,
      "##ParenthesizedExpression": 6239,
      "!\"": 6240,
      "##mentsEntry": 6241,
      "##embership": 6242,
      "##Coordinator": 6243,
      "CFMetaData": 6244,
      "##acing": 6245,
      "##anifestSummary": 6246,
      "comb": 6247,
      "Caret": 6248,
      "##dinal": 6249,
      "##Fetch": 6250,
      "##izedType": 6251,
      "td": 6252,
      "PsiWhiteSpace": 6253,
      "##YPE": 6254,
      "##sitories": 6255,
      "##rie": 6256,
      "DFSTestUtil": 6257,
      "##pnb": 6258,
      "##Keyspace": 6259,
      "##ATION_F": 6260,
      "##TestProxy": 6261,
      "_user": 6262,
      "getColor": 6263,
      "ColumnDefinition": 6264,
      "Listener": 6265,
      "big": 6266,
      "tb": 6267,
      "##AMP": 6268,
      "(\":": 6269,
      "##visor": 6270,
      "thistry": 6271,
      "_j": 6272,
      "##Lifecycle": 6273,
      "##Worker": 6274,
      "(\"/\")": 6275,
      "##Allocator": 6276,
      "##_PAG": 6277,
      "keyspace": 6278,
      "Col": 6279,
      "##Fx": 6280,
      "setBoolean": 6281,
      "##ignment": 6282,
      "##Repr": 6283,
      "##PathComponent": 6284,
      "runWriteAction": 6285,
      "PsiPrimitiveType": 6286,
      "##ebugProcess": 6287,
      "searchContext": 6288,
      "myCb": 6289,
      "bf": 6290,
      "##ec2": 6291,
      "setState": 6292,
      "##ains": 6293,
      "##verse": 6294,
      "createExpression": 6295,
      "Indent": 6296,
      "IdeaPlugin": 6297,
      "AclEntry": 6298,
      "##Mn": 6299,
      "setOutput": 6300,
      "##ElementText": 6301,
      "PsiLiteralExpression": 6302,
      "GitRepository": 6303,
      "isInheritor": 6304,
      "TimeValue": 6305,
      "##RootType": 6306,
      "metrics": 6307,
      "notification": 6308,
      "Socket": 6309,
      "##Arg": 6310,
      "##80": 6311,
      "getDescriptor": 6312,
      "var66": 6313,
      "engine": 6314,
      "nanoTime": 6315,
      "'.": 6316,
      "var13public": 6317,
      "assetCategory": 6318,
      "moveTo": 6319,
      "[{}]\",": 6320,
      "##jo": 6321,
      "allowed": 6322,
      "##HOUT": 6323,
      "Presentation": 6324,
      "TreeSet": 6325,
      "##Capacity": 6326,
      "Jar": 6327,
      "##Pe": 6328,
      "##IfNeeded": 6329,
      "##_WITHOUT": 6330,
      "Auto": 6331,
      "##omb": 6332,
      "removeCache": 6333,
      "BlockBuilder": 6334,
      "##alloon": 6335,
      "##Removed": 6336,
      "##eries": 6337,
      "##ManagerUtil": 6338,
      "##tivate": 6339,
      "##UpperCase": 6340,
      "o1": 6341,
      "##ARY": 6342,
      "ShardRouting": 6343,
      "keyword": 6344,
      "getIdentifier": 6345,
      "##Whitespace": 6346,
      "##sCache": 6347,
      "##INATION_F": 6348,
      "FINDER_PATH_WITHOUT": 6349,
      "##_PAGINATION_F": 6350,
      "FINDER_PATH_WITHOUT_PAGINATION_F": 6351,
      "FINDER_PATH_WITHOUT_PAGINATION_FIND": 6352,
      "##Go": 6353,
      "polls": 6354,
      "##sf": 6355,
      "##cho": 6356,
      "mapred": 6357,
      "##gl": 6358,
      "##Lambda": 6359,
      "analysis": 6360,
      "##ipping": 6361,
      "TestProps": 6362,
      "##Cancel": 6363,
      "getNextSibling": 6364,
      "PersistedModel": 6365,
      "##hn": 6366,
      "##ributor": 6367,
      "BeanDefinition": 6368,
      "ServiceController": 6369,
      "03": 6370,
      "##eak": 6371,
      "##It": 6372,
      "##Patterns": 6373,
      "##Translator": 6374,
      "##PortletId": 6375,
      "findElementAt": 6376,
      "PsiComment": 6377,
      "mbThread": 6378,
      "regist": 6379,
      "AtomicReference": 6380,
      "##EST": 6381,
      "##Stop": 6382,
      "##oost": 6383,
      "Upgrade": 6384,
      "04": 6385,
      "PasswordPolicy": 6386,
      "deserialize": 6387,
      "##ProblemDescriptor": 6388,
      "##kt": 6389,
      "##Auth": 6390,
      "getAggregations": 6391,
      "##alar": 6392,
      "props": 6393,
      "##mployee": 6394,
      "TestPropsValues": 6395,
      "sum": 6396,
      "branch": 6397,
      "(\"#": 6398,
      "setParent": 6399,
      "var14public": 6400,
      "PyFile": 6401,
      "##here": 6402,
      "XContentParser": 6403,
      "##cheduled": 6404,
      "##hc": 6405,
      "##DispatchThread": 6406,
      "##Many": 6407,
      "##scribe": 6408,
      "StreamOutput": 6409,
      "hello": 6410,
      "##ui": 6411,
      "##FI": 6412,
      "getRight": 6413,
      "getCollection": 6414,
      "Interval": 6415,
      "future": 6416,
      "macro": 6417,
      "##BeanLocator": 6418,
      "TransactionSynchronization": 6419,
      "_layout": 6420,
      "pending": 6421,
      "##oader": 6422,
      "##alyze": 6423,
      "##Creator": 6424,
      "##OL": 6425,
      "timestamp": 6426,
      "ReflectionTestUtil": 6427,
      "PsiModifierListOwner": 6428,
      "getAttachment": 6429,
      "getBuild": 6430,
      "##pa": 6431,
      "##Buf": 6432,
      "Lifecycle": 6433,
      "PreparedStatement": 6434,
      "CountDownLatch": 6435,
      "##Registrar": 6436,
      "##Aliases": 6437,
      "##Dynamic": 6438,
      "##Facet": 6439,
      "##Prop": 6440,
      "##18": 6441,
      "checkState": 6442,
      "##arshaller": 6443,
      "):": 6444,
      "getUn": 6445,
      "readFrom": 6446,
      "getItem": 6447,
      "##_M": 6448,
      "##ula": 6449,
      "##ref": 6450,
      "Compression": 6451,
      "BuildTarget": 6452,
      "##slt": 6453,
      "##types": 6454,
      "##Async": 6455,
      "IdeBundle": 6456,
      "XBreakpoint": 6457,
      "isVisible": 6458,
      "##oded": 6459,
      "calculate": 6460,
      "setSelection": 6461,
      "addListener": 6462,
      "##RootModel": 6463,
      "allocation": 6464,
      "##DeclarationStatement": 6465,
      "BY": 6466,
      "Closure": 6467,
      "##DAV": 6468,
      "##Exceptions": 6469,
      "getRec": 6470,
      "##Switch": 6471,
      "##_name": 6472,
      "##ixmap": 6473,
      "##sitive": 6474,
      "Spec": 6475,
      "o2": 6476,
      "itr": 6477,
      "mySettings": 6478,
      "##FieldMapper": 6479,
      "##Delegate": 6480,
      "##Recovery": 6481,
      "disable": 6482,
      "##coder": 6483,
      "NameNode": 6484,
      "##_n": 6485,
      "##Reg": 6486,
      "##TableModel": 6487,
      "##BeanLocatorUtil": 6488,
      "permission": 6489,
      "##_get": 6490,
      "##SQLQuery": 6491,
      "##TimerInstanceToken": 6492,
      "##cp": 6493,
      "##Contents": 6494,
      "setKaleo": 6495,
      "##olog": 6496,
      "##Any": 6497,
      "prod": 6498,
      "Constant": 6499,
      "##Connector": 6500,
      "orderkey": 6501,
      "Phone": 6502,
      "construct": 6503,
      "more": 6504,
      "##gi": 6505,
      "prev": 6506,
      "##DefinitionLink": 6507,
      "debugf": 6508,
      "##chie": 6509,
      "Exprent": 6510,
      "merged": 6511,
      "activity": 6512,
      "common": 6513,
      "<>(": 6514,
      "GroovyFile": 6515,
      "RangeMarker": 6516,
      "ddl": 6517,
      "##DelegationToken": 6518,
      "##icket": 6519,
      "##Brace": 6520,
      "##ForWrite": 6521,
      "attr": 6522,
      "##MessageConverter": 6523,
      "##*\")": 6524,
      "external": 6525,
      "##uilt": 6526,
      "InlineSQL": 6527,
      "##_LOGGER": 6528,
      "Assertion": 6529,
      "myCurrent": 6530,
      "##HitCount": 6531,
      "Html": 6532,
      "(\"(": 6533,
      "##DataNodes": 6534,
      "##50": 6535,
      "InlineSQLHelperUtil": 6536,
      "level": 6537,
      "##chieve": 6538,
      "##tice": 6539,
      "##ResultSet": 6540,
      "getFileType": 6541,
      "##Plan": 6542,
      "##EventListener": 6543,
      "Struct": 6544,
      "IncorrectOperationException": 6545,
      "MR": 6546,
      "getStatement": 6547,
      "DLFileVersion": 6548,
      "accessor": 6549,
      "resources": 6550,
      "jdbc": 6551,
      "isSupport": 6552,
      "AbstractVcs": 6553,
      "WebSocket": 6554,
      "TrashEntry": 6555,
      "##mallImage": 6556,
      "Modifi": 6557,
      "ResourceRequest": 6558,
      "changed": 6559,
      "##13": 6560,
      "getInput": 6561,
      "Contact": 6562,
      "subscription": 6563,
      "(\"\\\\": 6564,
      "ResourceBlock": 6565,
      "Predicate": 6566,
      "ExpandoValue": 6567,
      "Zip": 6568,
      "highlighter": 6569,
      "passwordPolicy": 6570,
      "Structure": 6571,
      "##Sign": 6572,
      "##ds": 6573,
      "revision": 6574,
      "ObjectUtils": 6575,
      "\")).": 6576,
      "PortalBeanLocatorUtil": 6577,
      "##STAMP": 6578,
      "?\",": 6579,
      "highlight": 6580,
      "##kj": 6581,
      "Changes": 6582,
      "##Metric": 6583,
      "##Specification": 6584,
      "isF": 6585,
      "##RuntimeException": 6586,
      "symbol": 6587,
      "getThread": 6588,
      "setContext": 6589,
      "myVcs": 6590,
      "Identifier": 6591,
      "assertNot": 6592,
      "##Generated": 6593,
      "getNumber": 6594,
      "Terms": 6595,
      "DE": 6596,
      "##nD": 6597,
      "##_args": 6598,
      "!\")": 6599,
      "##Additional": 6600,
      "getClient": 6601,
      "##SystemItem": 6602,
      "##LI": 6603,
      "CalendarResource": 6604,
      "IntWritable": 6605,
      "##chievement": 6606,
      "##_G": 6607,
      "(){": 6608,
      "##ology": 6609,
      "##qz": 6610,
      "getCustom": 6611,
      "getEntityManager": 6612,
      "Typed": 6613,
      "##22": 6614,
      "##Docs": 6615,
      "_a": 6616,
      "##iod": 6617,
      "##ategor": 6618,
      "##Checkbox": 6619,
      "PsiFileSystemItem": 6620,
      "getParentFile": 6621,
      "\"]\"+\"": 6622,
      "##Upgrade": 6623,
      "##FieldMatcher": 6624,
      "PrintWriter": 6625,
      "Couple": 6626,
      "cfs": 6627,
      "##section": 6628,
      "##cessary": 6629,
      "methods": 6630,
      "www": 6631,
      "setVersion": 6632,
      "registerBeanDefinition": 6633,
      "##Cached": 6634,
      "spring": 6635,
      "##avigatable": 6636,
      "##33": 6637,
      "setLong": 6638,
      "##BlockStatement": 6639,
      "stub": 6640,
      "##lied": 6641,
      "##ReturnType": 6642,
      "Duration": 6643,
      "Found": 6644,
      "groovy": 6645,
      "##safe": 6646,
      "getCategory": 6647,
      "GrTypeDefinition": 6648,
      "xsd": 6649,
      "isShow": 6650,
      "##ention": 6651,
      "##nother": 6652,
      "ddlRecord": 6653,
      "cre": 6654,
      "##Total": 6655,
      "blocks": 6656,
      "describe": 6657,
      "getLeft": 6658,
      "_service": 6659,
      "500": 6660,
      "value1": 6661,
      "MethodSignature": 6662,
      "##oved": 6663,
      "checkCalc": 6664,
      "Acc": 6665,
      "##Has": 6666,
      "getMvccVersion": 6667,
      "CodeInsight": 6668,
      "##cen": 6669,
      "));}}": 6670,
      "isNotEmpty": 6671,
      "virtualFile": 6672,
      "##rowse": 6673,
      "constraint": 6674,
      "##istenableFuture": 6675,
      "cell": 6676,
      "reb": 6677,
      "##Users": 6678,
      "0xFF": 6679,
      "##Achievement": 6680,
      "style": 6681,
      "Unsync": 6682,
      "isPresent": 6683,
      "##Visibility": 6684,
      "##MENT": 6685,
      "choose": 6686,
      "readBoolean": 6687,
      "setBackground": 6688,
      "ColumnHandle": 6689,
      "Header": 6690,
      "##resol": 6691,
      "##Directories": 6692,
      "getArgumentList": 6693,
      "##stat": 6694,
      "myManager": 6695,
      "login": 6696,
      "DataInputStream": 6697,
      "##Labor": 6698,
      "##filtered": 6699,
      "writeVInt": 6700,
      "resolved": 6701,
      "Dumb": 6702,
      "xxx": 6703,
      "##_RE": 6704,
      "getNodeId": 6705,
      "De": 6706,
      "example": 6707,
      "checkbox": 6708,
      "analyzer": 6709,
      "##_l": 6710,
      "Vec2": 6711,
      "hits": 6712,
      "##Te": 6713,
      "getI": 6714,
      "LayoutRevision": 6715,
      "Move": 6716,
      ">())": 6717,
      "##library": 6718,
      "TypeConversionUtil": 6719,
      "Bit": 6720,
      "Got": 6721,
      "Work": 6722,
      "PsiIfStatement": 6723,
      "createTable": 6724,
      "ev": 6725,
      "##tical": 6726,
      "##15": 6727,
      "getY": 6728,
      "getAn": 6729,
      "PsiPolyadicExpression": 6730,
      "runReadAction": 6731,
      "ByteBufferUtil": 6732,
      "dlFileVersion": 6733,
      "getParameterTypes": 6734,
      "##PostProcessor": 6735,
      "isN": 6736,
      "portletURL": 6737,
      "EditorEx": 6738,
      "getModifiers": 6739,
      "Tab": 6740,
      "##gon": 6741,
      "##Alt": 6742,
      "getArtifact": 6743,
      "##Profiles": 6744,
      "}\")": 6745,
      "##Managed": 6746,
      "tokens": 6747,
      "var69": 6748,
      "##LanguageLevel": 6749,
      "menu": 6750,
      "strip": 6751,
      "SocialRelation": 6752,
      "##ality": 6753,
      "##PsiElementPointer": 6754,
      "##Packages": 6755,
      "##Eval": 6756,
      "##yy": 6757,
      "##atest": 6758,
      "##Projects": 6759,
      "##Viewer": 6760,
      "##vex": 6761,
      "##Blocking": 6762,
      "##Feature": 6763,
      "({\"": 6764,
      "CalEvent": 6765,
      "##ActionMethod": 6766,
      "createExpressionFromText": 6767,
      "##Secret": 6768,
      "##Html": 6769,
      "finalize": 6770,
      "##change": 6771,
      "isDefined": 6772,
      "consumer": 6773,
      "GET": 6774,
      "PsiDeclarationStatement": 6775,
      "##iration": 6776,
      "ApplicationContext": 6777,
      "strategy": 6778,
      "##adioButton": 6779,
      "'\")": 6780,
      "got": 6781,
      "##Tables": 6782,
      "getOperand": 6783,
      "BufferedReader": 6784,
      "port": 6785,
      "##Tooltip": 6786,
      "##PointerException": 6787,
      "announce": 6788,
      "##Typed": 6789,
      "Store": 6790,
      "##erved": 6791,
      "GL": 6792,
      "unset": 6793,
      "##Meta": 6794,
      "##avigate": 6795,
      "##come": 6796,
      "##kz": 6797,
      "PathElement": 6798,
      "ear": 6799,
      "SM": 6800,
      "Team": 6801,
      "##Heartbeat": 6802,
      "##When": 6803,
      "SocialRequest": 6804,
      "EmailAddress": 6805,
      "##ism": 6806,
      "##ByUserId": 6807,
      "getOriginalCompanyId": 6808,
      "##ways": 6809,
      "DocumentEvent": 6810,
      "cs": 6811,
      "##Notify": 6812,
      "##Trig": 6813,
      "##FolderId": 6814,
      "##query": 6815,
      "bec": 6816,
      "started": 6817,
      "countDown": 6818,
      "Before": 6819,
      "Bundle": 6820,
      "Tag": 6821,
      "##DER": 6822,
      "##Extend": 6823,
      "getLineNumber": 6824,
      "##EnumConstant": 6825,
      "NullPointerException": 6826,
      "##Lazy": 6827,
      "##ince": 6828,
      "##SelectionListener": 6829,
      "##Cl": 6830,
      "##wj": 6831,
      "PsiBinaryExpression": 6832,
      "subsystem": 6833,
      "##olygon": 6834,
      "##Aspect": 6835,
      "nextElement": 6836,
      "getOrCreate": 6837,
      "Legacy": 6838,
      "toSystem": 6839,
      "quick": 6840,
      "Timer": 6841,
      "_ddm": 6842,
      "FileInputStream": 6843,
      "test2": 6844,
      "This": 6845,
      "async": 6846,
      "\"},": 6847,
      "##acer": 6848,
      "##Unsigned": 6849,
      "##URLConnection": 6850,
      "##Recursive": 6851,
      "co": 6852,
      "Refresh": 6853,
      "psiFile": 6854,
      "LA": 6855,
      "getDDM": 6856,
      "GrStatement": 6857,
      "actions": 6858,
      "TreeElement": 6859,
      "incorrect": 6860,
      "##**/": 6861,
      "place": 6862,
      "##Machine": 6863,
      "field2": 6864,
      "getReferenceName": 6865,
      "getPortletId": 6866,
      "getLe": 6867,
      "endpoint": 6868,
      "pathAddress": 6869,
      "DatanodeStorage": 6870,
      "##Em": 6871,
      "getQueue": 6872,
      "assertInvalid": 6873,
      "Prod": 6874,
      "RefElement": 6875,
      "orders": 6876,
      "GeoPoint": 6877,
      "PsiWildcardType": 6878,
      "##Sys": 6879,
      "##Vi": 6880,
      "var67": 6881,
      "##Apps": 6882,
      "##ProgressIndicator": 6883,
      "timer": 6884,
      "running": 6885,
      "su": 6886,
      "determ": 6887,
      "ControlFlow": 6888,
      "findFileBy": 6889,
      "trigger": 6890,
      "##Screen": 6891,
      "getFull": 6892,
      "Label": 6893,
      "##px": 6894,
      "##go": 6895,
      "returned": 6896,
      "timeout": 6897,
      "##Aggregator": 6898,
      "var71": 6899,
      "##ParameterList": 6900,
      "requireNo": 6901,
      "using": 6902,
      "##dap": 6903,
      "##izable": 6904,
      "##Acked": 6905,
      "/\")": 6906,
      "oper": 6907,
      "req": 6908,
      "putValue": 6909,
      "##Platform": 6910,
      "##Namesystem": 6911,
      "JpsModule": 6912,
      "FSData": 6913,
      "##Handlers": 6914,
      "##eh": 6915,
      "##qj": 6916,
      "##TreeElement": 6917,
      "##ssible": 6918,
      "##mitter": 6919,
      "ParameterizedType": 6920,
      "##Membership": 6921,
      "assertIs": 6922,
      "getMatch": 6923,
      "##DDMFormField": 6924,
      "##LO": 6925,
      "##ading": 6926,
      "LocalQuickFix": 6927,
      "##Resolv": 6928,
      "##Gad": 6929,
      "DataOutputStream": 6930,
      "BaseModel": 6931,
      "##123": 6932,
      "##Gadget": 6933,
      "containingClass": 6934,
      "InspectionGadget": 6935,
      "sdk": 6936,
      "##Jo": 6937,
      "##]\",": 6938,
      "setClassLoader": 6939,
      "Naming": 6940,
      "<?>)": 6941,
      "##parent": 6942,
      "Todo": 6943,
      "(\"}\")": 6944,
      "getCode": 6945,
      "##OutOf": 6946,
      "\".\"": 6947,
      "connector": 6948,
      "##Help": 6949,
      "\"{": 6950,
      "##Am": 6951,
      "getLastPathComponent": 6952,
      "fetchByPrimaryKey": 6953,
      "SAX": 6954,
      "##Pages": 6955,
      "##Export": 6956,
      "##ChangeEvent": 6957,
      "##Zip": 6958,
      "##VM": 6959,
      "<?>[]": 6960,
      "Rpc": 6961,
      "nextDate": 6962,
      "recover": 6963,
      "graph": 6964,
      "##PB": 6965,
      "##Layer": 6966,
      "##ason": 6967,
      "getRel": 6968,
      "##erformActionMethod": 6969,
      "getExtensions": 6970,
      "Delet": 6971,
      "accepts": 6972,
      "TIMESTAMP": 6973,
      "var2protected": 6974,
      "me": 6975,
      "##ured": 6976,
      "getPort": 6977,
      "##TableHandle": 6978,
      "##logsStats": 6979,
      "getMetadata": 6980,
      "##Complete": 6981,
      "##iffer": 6982,
      "##Acl": 6983,
      "##Imports": 6984,
      "parseLong": 6985,
      "##Ue": 6986,
      "pass": 6987,
      "##GL": 6988,
      "##vj": 6989,
      "##sis": 6990,
      "Inheritance": 6991,
      "readVInt": 6992,
      "##Kn": 6993,
      "ResourcePermission": 6994,
      "##Conflict": 6995,
      "##logsStatsUser": 6996,
      "EditorColor": 6997,
      ");}},": 6998,
      "##Loaded": 6999,
      "upgrade": 7000,
      "##mn": 7001,
      "##vz": 7002,
      "##qx": 7003,
      "##uh": 7004,
      "##Mul": 7005,
      "##CK": 7006,
      "getControl": 7007,
      "##FileRank": 7008,
      "doubleValue": 7009,
      "##uj": 7010,
      "##_CON": 7011,
      "##fb": 7012,
      "255": 7013,
      "##ategories": 7014,
      "und": 7015,
      "interceptor": 7016,
      "operator": 7017,
      "##atures": 7018,
      "environment": 7019,
      "ColumnFamilyStore": 7020,
      "##lineDistinct": 7021,
      "##sInlineDistinct": 7022,
      "isSupportsInlineDistinct": 7023,
      "1l": 7024,
      "checkCanceled": 7025,
      "##qw": 7026,
      "isUnder": 7027,
      "contact": 7028,
      "setCurrent": 7029,
      "getPlid": 7030,
      "dep": 7031,
      "AccessControl": 7032,
      "##sBy": 7033,
      "Logger": 7034,
      "##ombst": 7035,
      "##EvalContext": 7036,
      "##TokenType": 7037,
      "Ipnb": 7038,
      "##QName": 7039,
      "##LASS": 7040,
      "PRI": 7041,
      "##Authentication": 7042,
      "assertAcked": 7043,
      "did": 7044,
      "myName": 7045,
      "getRootElement": 7046,
      "getShortTimestamp": 7047,
      "##ewrite": 7048,
      "##CacheServletResponse": 7049,
      "BasicBlock": 7050,
      "addDocument": 7051,
      "PropertiesFile": 7052,
      "##Arrangement": 7053,
      "normalize": 7054,
      "MicroblogsEntry": 7055,
      "##alle": 7056,
      "DLFileEntryType": 7057,
      "Mapper": 7058,
      "Routing": 7059,
      "var78": 7060,
      "ddmFormField": 7061,
      "lst": 7062,
      "var15public": 7063,
      "getStructure": 7064,
      "getHeader": 7065,
      "Customer": 7066,
      "XDebugger": 7067,
      "##fr": 7068,
      "convertTo": 7069,
      "destination": 7070,
      "##embershipRequest": 7071,
      "##aque": 7072,
      "##77": 7073,
      "##Created": 7074,
      "getCanonicalText": 7075,
      "Post": 7076,
      "##\");": 7077,
      "hasText": 7078,
      "determine": 7079,
      "##ah": 7080,
      "getRemote": 7081,
      "settingsBuilder": 7082,
      "ExportImport": 7083,
      "deprecation": 7084,
      "mode": 7085,
      "p1": 7086,
      "classNameId": 7087,
      "v2": 7088,
      "##sr": 7089,
      "##CommandAction": 7090,
      "Split": 7091,
      "##Green": 7092,
      "##ByUserName": 7093,
      "Status": 7094,
      "ROOT": 7095,
      "myTarget": 7096,
      "##rase": 7097,
      "##pan": 7098,
      "##licable": 7099,
      "UserNotificationEvent": 7100,
      "##etic": 7101,
      "getUri": 7102,
      "##tract": 7103,
      "Missing": 7104,
      "qualifier": 7105,
      "##kl": 7106,
      "##iltering": 7107,
      "##FilePath": 7108,
      "##irtualHost": 7109,
      "##Checked": 7110,
      "prepareCreate": 7111,
      "addAsManifest": 7112,
      "Distributed": 7113,
      "addAsManifestResource": 7114,
      "endArray": 7115,
      "LayoutFriendlyURL": 7116,
      "setMvccVersion": 7117,
      "Hello": 7118,
      "patch": 7119,
      "##kh": 7120,
      "(\"$": 7121,
      "ObjectName": 7122,
      "PyReferenceExpression": 7123,
      "Scroll": 7124,
      "RegExp": 7125,
      "duplicate": 7126,
      "jet": 7127,
      "##qh": 7128,
      "KeyStroke": 7129,
      "parseExpression": 7130,
      "RefClass": 7131,
      "##oming": 7132,
      "KaleoNotification": 7133,
      "##esigner": 7134,
      "##Reduce": 7135,
      "cached": 7136,
      "##Ren": 7137,
      "getConf": 7138,
      "paths": 7139,
      "IndexRequestBuilder": 7140,
      "visitElement": 7141,
      "##Di": 7142,
      "##DataSource": 7143,
      "##ticeableFuture": 7144,
      "##reakpoint": 7145,
      "##earDown": 7146,
      "DDLRecordSet": 7147,
      "writeByte": 7148,
      "##DefinitionId": 7149,
      "34": 7150,
      "FoldRegion": 7151,
      "setUser": 7152,
      "##ativePath": 7153,
      "LogicalPosition": 7154,
      "mon": 7155,
      "##rit": 7156,
      "##brains": 7157,
      "JCheckBox": 7158,
      "setBase": 7159,
      "##Objects": 7160,
      "##Opaque": 7161,
      "XMLExtendedStreamReader": 7162,
      "wac": 7163,
      "##Expected": 7164,
      "##Placeholder": 7165,
      "##oriz": 7166,
      "##amen": 7167,
      "getFoo": 7168,
      "##Login": 7169,
      "##ParseException": 7170,
      "Or": 7171,
      "correct": 7172,
      "isInfo": 7173,
      "getDefinition": 7174,
      "Compile": 7175,
      "classpath": 7176,
      "##Plus": 7177,
      "jetbrains": 7178,
      "##Evaluator": 7179,
      "##TokenIdentifier": 7180,
      "\\\">": 7181,
      "##ynchronous": 7182,
      "ThreadPool": 7183,
      "rawElementText": 7184,
      "link_": 7185,
      "InitialContext": 7186,
      "ListenableFuture": 7187,
      "slice": 7188,
      "##Ep": 7189,
      "DLFileShortcut": 7190,
      "documentlibrary": 7191,
      "restart": 7192,
      "##CastExpression": 7193,
      "##preter": 7194,
      "world": 7195,
      "getHandler": 7196,
      "##stitution": 7197,
      "(%": 7198,
      "Lex": 7199,
      "ms": 7200,
      "##Deploy": 7201,
      "##qg": 7202,
      "recovery": 7203,
      "SQLException": 7204,
      "isInfoEnabled": 7205,
      "##ws": 7206,
      "MavenArtifact": 7207,
      "##Nested": 7208,
      "##lash": 7209,
      "FileHandle": 7210,
      "##Equival": 7211,
      "DatanodeInfo": 7212,
      "Clustering": 7213,
      "##Inspector": 7214,
      "Lists": 7215,
      "##wrap": 7216,
      "mouse": 7217,
      "##ilable": 7218,
      "<?>[": 7219,
      "##SourceRoot": 7220,
      "##boBox": 7221,
      "##olume": 7222,
      "startArray": 7223,
      "##========": 7224,
      "getCell": 7225,
      "PortletURL": 7226,
      "('.": 7227,
      "Jdbc": 7228,
      "GroovyResolveResult": 7229,
      "##ServletContext": 7230,
      "Per": 7231,
      "getProxy": 7232,
      "auth": 7233,
      "##sScheme": 7234,
      "##World": 7235,
      "##Advice": 7236,
      "resolver": 7237,
      "##LD": 7238,
      "Indexer": 7239,
      "##CTION": 7240,
      "_in": 7241,
      "##sFor": 7242,
      "##Rpc": 7243,
      "setRequest": 7244,
      "AssetLink": 7245,
      "var68": 7246,
      "##Compar": 7247,
      "##vely": 7248,
      "Nullable": 7249,
      "assignment": 7250,
      "Modifier": 7251,
      "Operator": 7252,
      "##Pi": 7253,
      "##Configurations": 7254,
      "userGroup": 7255,
      "({": 7256,
      "##ShortcutSet": 7257,
      "signature": 7258,
      "##PermissionUtil": 7259,
      "##ditions": 7260,
      "Static": 7261,
      "less": 7262,
      "RemoteException": 7263,
      "TTuple": 7264,
      "##ById": 7265,
      "FileOutputStream": 7266,
      "TTupleProtocol": 7267,
      "##FocusManager": 7268,
      ";\\": 7269,
      "Destination": 7270,
      "##vw": 7271,
      "##oe": 7272,
      "Params": 7273,
      "##Try": 7274,
      "PsiTypeElement": 7275,
      "##Exclude": 7276,
      "chunk": 7277,
      "##Resolution": 7278,
      "##Editable": 7279,
      "Options": 7280,
      "part": 7281,
      "##Auto": 7282,
      "getInputStream": 7283,
      "##olation": 7284,
      "64": 7285,
      "##asc": 7286,
      "FileDocumentManager": 7287,
      "addProperty": 7288,
      "PsiElementFactory": 7289,
      "parseFieldMatcher": 7290,
      "##antis": 7291,
      "RunConfiguration": 7292,
      "##axb": 7293,
      "getUserObject": 7294,
      "##udited": 7295,
      "bounds": 7296,
      "##fc": 7297,
      "##Me": 7298,
      "##aches": 7299,
      "##rivateLayout": 7300,
      "myClass": 7301,
      "shardId": 7302,
      "##ottom": 7303,
      "driver": 7304,
      "##qd": 7305,
      "##less": 7306,
      "Sequence": 7307,
      "modules": 7308,
      "StringHelper": 7309,
      "MethodParameter": 7310,
      "##ediate": 7311,
      "##Ab": 7312,
      "##agments": 7313,
      "created": 7314,
      "##rimKey": 7315,
      "##orizont": 7316,
      "##Updated": 7317,
      "imported": 7318,
      "TimeZone": 7319,
      "Top": 7320,
      "##nc": 7321,
      "##irm": 7322,
      "implement": 7323,
      "CON": 7324,
      "##aN": 7325,
      "setIndex": 7326,
      "##ContextImpl": 7327,
      "##Decoder": 7328,
      "Repl": 7329,
      "UnsupportedOperationException": 7330,
      "Located": 7331,
      "##D5": 7332,
      "TreeMap": 7333,
      "Website": 7334,
      "##APEntry": 7335,
      "##aturalId": 7336,
      "added": 7337,
      "##TargetExpression": 7338,
      "getLocale": 7339,
      "60000": 7340,
      "##kx": 7341,
      "unsync": 7342,
      "##ViewProvider": 7343,
      "assertSearch": 7344,
      "##Severity": 7345,
      "closed": 7346,
      "##uy": 7347,
      "##Setter": 7348,
      "##ssigned": 7349,
      "##EditLog": 7350,
      "Matchers": 7351,
      "##uz": 7352,
      "##Escape": 7353,
      "##lier": 7354,
      "getOriginalUuid": 7355,
      "##boards": 7356,
      "##Creation": 7357,
      "##resolved": 7358,
      "sign": 7359,
      "##ServiceRegistry": 7360,
      "##idden": 7361,
      "##isto": 7362,
      "Transform": 7363,
      "##econditions": 7364,
      "##pha": 7365,
      "##Trigger": 7366,
      "##min": 7367,
      "##urrency": 7368,
      "##LambdaExpression": 7369,
      "##ueues": 7370,
      "setId": 7371,
      "addMapping": 7372,
      "##MethodCall": 7373,
      "##Locations": 7374,
      "assertHitCount": 7375,
      "ClassPath": 7376,
      "##Models": 7377,
      "##States": 7378,
      "conflicts": 7379,
      "Scheduler": 7380,
      "getScopeGroupId": 7381,
      "getAddress": 7382,
      "##andoBridgeAttributes": 7383,
      "TransactionSynchronizationManager": 7384,
      "##Broad": 7385,
      "getModifierList": 7386,
      "##eetupsEntry": 7387,
      ".\"+\"": 7388,
      "##InstanceId": 7389,
      "##lyph": 7390,
      "##les": 7391,
      "##endering": 7392,
      "\\\",": 7393,
      "ns": 7394,
      "##89": 7395,
      "exclude": 7396,
      "comparator": 7397,
      "##InputFormat": 7398,
      "##Sk": 7399,
      "##vx": 7400,
      "(),\"": 7401,
      "Platform": 7402,
      "##Fully": 7403,
      "Preconditions": 7404,
      "##list": 7405,
      "myRoot": 7406,
      "getDom": 7407,
      "nm": 7408,
      "Environment": 7409,
      "Lazy": 7410,
      "team": 7411,
      "##tc": 7412,
      "completed": 7413,
      "hasMoreElements": 7414,
      "##iy": 7415,
      "##kc": 7416,
      "##quested": 7417,
      "##Register": 7418,
      "Cap": 7419,
      "need": 7420,
      "##eature": 7421,
      "getPro": 7422,
      "##cedure": 7423,
      "pc": 7424,
      "##Attachment": 7425,
      "##Element1": 7426,
      "completion": 7427,
      "PsiJavaToken": 7428,
      "Matrix": 7429,
      "PyBundle": 7430,
      "##Allocation": 7431,
      "##ixed": 7432,
      "##udent": 7433,
      "();}}})": 7434,
      "()]))": 7435,
      "##Ire": 7436,
      "toS": 7437,
      "SVNURL": 7438,
      "PRIM": 7439,
      "##uw": 7440,
      "##Clear": 7441,
      "##Blob": 7442,
      "getRM": 7443,
      "##IfNotNull": 7444,
      "##HttpRequest": 7445,
      "setModelClass": 7446,
      "##avac": 7447,
      "##ailure": 7448,
      "visitMethod": 7449,
      "##hysical": 7450,
      "TreeUtil": 7451,
      "VcsFileRevision": 7452,
      "reduce": 7453,
      "setPrimaryKeyPropertyName": 7454,
      "tearDown": 7455,
      "##TypeInfo": 7456,
      "getBucket": 7457,
      "Show": 7458,
      "Unused": 7459,
      "loadClass": 7460,
      "##Roles": 7461,
      "##ota": 7462,
      "incrementAndGet": 7463,
      "##OKAction": 7464,
      "##reet": 7465,
      "##Groovy": 7466,
      "##essaging": 7467,
      "HT": 7468,
      "\"}\\": 7469,
      "##Ct": 7470,
      "##55": 7471,
      "##6D": 7472,
      "invocation": 7473,
      "##Coupon": 7474,
      "DatabaseDescriptor": 7475,
      "Binary": 7476,
      "##qy": 7477,
      "requestFocus": 7478,
      "##LanguageInjection": 7479,
      "Types": 7480,
      "unused": 7481,
      "onFailure": 7482,
      "##Uuid_C": 7483,
      "##IS": 7484,
      "##just": 7485,
      "##ccur": 7486,
      "setExpandoBridgeAttributes": 7487,
      "##iagnostics": 7488,
      "getSnapshot": 7489,
      "Candidate": 7490,
      "zz": 7491,
      "##AM": 7492,
      "##Gradle": 7493,
      "domain": 7494,
      "\"$": 7495,
      "Password": 7496,
      "##__SWIG": 7497,
      "NodeDescriptor": 7498,
      "getServletContext": 7499,
      "()\")": 7500,
      "##enter": 7501,
      "##ValueMap": 7502,
      "setPreferred": 7503,
      "zip": 7504,
      "JBPopup": 7505,
      "cleanUp": 7506,
      "abs": 7507,
      "##Done": 7508,
      "##bx": 7509,
      "getStatistics": 7510,
      "Stop": 7511,
      "##Implementation": 7512,
      "mvccVersion": 7513,
      "JList": 7514,
      "##fx": 7515,
      "##fw": 7516,
      "getRevision": 7517,
      "interval": 7518,
      "items": 7519,
      "Announcements": 7520,
      "##Loop": 7521,
      "##Threads": 7522,
      "getScroll": 7523,
      "##Launch": 7524,
      "PyTargetExpression": 7525,
      "ModelType": 7526,
      "LayoutPrototype": 7527,
      "flag": 7528,
      "##Suggestion": 7529,
      "var16public": 7530,
      "subscribe": 7531,
      "##WebApplicationContext": 7532,
      "##bedPane": 7533,
      "##ripe": 7534,
      "##Descriptors": 7535,
      "##ConditionalExpression": 7536,
      "because": 7537,
      "getResolve": 7538,
      "5000": 7539,
      "getHeaders": 7540,
      "##AllDocuments": 7541,
      "initializer": 7542,
      "bad": 7543,
      "os": 7544,
      "round": 7545,
      "myRepository": 7546,
      "##Cart": 7547,
      "##ComponentDescription": 7548,
      "##InProgress": 7549,
      "##Producer": 7550,
      "s1": 7551,
      "setRe": 7552,
      "##Direct": 7553,
      "##ERV": 7554,
      "##rete": 7555,
      "neg": 7556,
      "##Include": 7557,
      "##iform": 7558,
      "##Versions": 7559,
      "##Scanner": 7560,
      "##Loading": 7561,
      "OrderEntry": 7562,
      "InputSplit": 7563,
      "ExtendedBlock": 7564,
      "##Failures": 7565,
      "##ocity": 7566,
      "##Assert": 7567,
      "myComponent": 7568,
      "##ColumnType": 7569,
      "LayoutSet": 7570,
      "numDataNodes": 7571,
      "blogsEntry": 7572,
      "ClassName": 7573,
      "##AttributeValue": 7574,
      "getMemory": 7575,
      "Comparable": 7576,
      "dump": 7577,
      "history": 7578,
      "##Pom": 7579,
      "##bz": 7580,
      "##ented": 7581,
      "##lapse": 7582,
      "##CodeStyleSettings": 7583,
      "##kw": 7584,
      "##\",\"": 7585,
      "##izationUtil": 7586,
      "LayoutSetPrototype": 7587,
      "impl": 7588,
      "publish": 7589,
      "##qm": 7590,
      "##lem": 7591,
      "ce": 7592,
      "##While": 7593,
      "XmlElementDescriptor": 7594,
      "##Canceled": 7595,
      "PsiLanguageInjection": 7596,
      "PsiLanguageInjectionHost": 7597,
      "##sHolder": 7598,
      "VarVersion": 7599,
      "c2": 7600,
      "##ings": 7601,
      "##igid": 7602,
      "enter": 7603,
      "JavaArchive": 7604,
      "##RefactoringUtil": 7605,
      "SessionFactoryImplementor": 7606,
      "getInstanceEx": 7607,
      "##HttpServletRequest": 7608,
      "getAr": 7609,
      "getCalendar": 7610,
      "DatanodeDescriptor": 7611,
      "getRaw": 7612,
      "##uffle": 7613,
      "JTree": 7614,
      "##eom": 7615,
      "##Encry": 7616,
      "btCollisionObject": 7617,
      "getMap": 7618,
      "ROOT_LOGGER": 7619,
      "##hz": 7620,
      "##RadioButton": 7621,
      "')\",": 7622,
      "Callback": 7623,
      "axis": 7624,
      "##_ST": 7625,
      "##Rigid": 7626,
      "##TypeId": 7627,
      "ActionGroup": 7628,
      "##Replacement": 7629,
      "Ign": 7630,
      "hint": 7631,
      "##alityState": 7632,
      "ShoppingOrder": 7633,
      "##ates": 7634,
      "isAnnotation": 7635,
      "##ombstone": 7636,
      "Bar": 7637,
      "es": 7638,
      "seek": 7639,
      "##Digest": 7640,
      "##oy": 7641,
      "##_le": 7642,
      "##Fl": 7643,
      "##ssue": 7644,
      "ensureGreen": 7645,
      "toUpperCase": 7646,
      "HttpURLConnection": 7647,
      "TextEditor": 7648,
      "Subscription": 7649,
      "##amenode": 7650,
      "IS": 7651,
      "##Suc": 7652,
      "##Light": 7653,
      "unit": 7654,
      "Direct": 7655,
      "isStatic": 7656,
      "Hint": 7657,
      "groups": 7658,
      "FileChooser": 7659,
      "##TextAttributes": 7660,
      "##_cup": 7661,
      "##_field": 7662,
      "QuickFix": 7663,
      ";\")": 7664,
      "fromString": 7665,
      "##rupt": 7666,
      "Extensions": 7667,
      "java_cup": 7668,
      "Doc": 7669,
      "##Segments": 7670,
      "getRouting": 7671,
      "Engine": 7672,
      "wikiPageModelImpl": 7673,
      "##mbedded": 7674,
      "##Equivalent": 7675,
      "##Api": 7676,
      "SPI": 7677,
      "##irror": 7678,
      "stage": 7679,
      "UserTracker": 7680,
      "Keymap": 7681,
      "##oked": 7682,
      "##centi": 7683,
      "##Credentials": 7684,
      "##3f": 7685,
      "PRIMARY": 7686,
      "Segment": 7687,
      "##Existing": 7688,
      "JButton": 7689,
      "testBean": 7690,
      "##jj": 7691,
      "GrField": 7692,
      "##umerator": 7693,
      "\"]\")": 7694,
      "finished": 7695,
      "Org": 7696,
      "##Sender": 7697,
      "##upModel": 7698,
      "myModule": 7699,
      "getMethodExpression": 7700,
      ",(": 7701,
      "##ka": 7702,
      "##Excluded": 7703,
      "tokenizer": 7704,
      "Generation": 7705,
      "DDMFormValues": 7706,
      "\">": 7707,
      "End": 7708,
      "##MBean": 7709,
      "##Clean": 7710,
      "InheritanceUtil": 7711,
      "]\")": 7712,
      "utf8": 7713,
      "##StorageLink": 7714,
      "rawtypes": 7715,
      "JTextField": 7716,
      "messageboards": 7717,
      "helper": 7718,
      "##Cvs": 7719,
      "||(": 7720,
      "beans": 7721,
      "##pg": 7722,
      "##Workflow": 7723,
      "setClassNameId": 7724,
      "##ilation": 7725,
      "retrie": 7726,
      "##Implicit": 7727,
      "##Decl": 7728,
      "_f": 7729,
      "cm": 7730,
      "free": 7731,
      "isActive": 7732,
      "##emonic": 7733,
      "##Ms": 7734,
      "getFilter": 7735,
      "getApplicationId": 7736,
      "LanguageUtil": 7737,
      "MDRRuleGroupInstance": 7738,
      "Op": 7739,
      "##_re": 7740,
      "##BC": 7741,
      "executeUpdate": 7742,
      "##FailedException": 7743,
      "##Contact": 7744,
      "Close": 7745,
      "WebServices": 7746,
      "ServletRequest": 7747,
      "ORDER": 7748,
      "Argument": 7749,
      "##Mock": 7750,
      "##bw": 7751,
      "assertCan": 7752,
      "##TypePermission": 7753,
      "##TestCase": 7754,
      "getConfig": 7755,
      "##Sol": 7756,
      "##aver": 7757,
      "##Interceptors": 7758,
      "LexParse": 7759,
      "Replace": 7760,
      "WebServicesTestUtils": 7761,
      "cfg": 7762,
      "##Ne": 7763,
      "##gor": 7764,
      "##_D": 7765,
      "##ollow": 7766,
      "KeyEvent": 7767,
      "##Resolved": 7768,
      "InspectionGadgetsBundle": 7769,
      "var70": 7770,
      "theme": 7771,
      "##riting": 7772,
      "##Intention": 7773,
      "removed": 7774,
      "Parsed": 7775,
      "JavaElementVisitor": 7776,
      "##uccessful": 7777,
      "invalidate": 7778,
      "getQualifierExpression": 7779,
      "Gdx": 7780,
      "Navigatable": 7781,
      "##orated": 7782,
      "##connect": 7783,
      "##ROP": 7784,
      "##orizontal": 7785,
      "ass": 7786,
      "##Catch": 7787,
      "methodName": 7788,
      "##Symbols": 7789,
      "go": 7790,
      "##uring": 7791,
      "##ertif": 7792,
      "registerKeyword": 7793,
      "]).": 7794,
      "##chemes": 7795,
      "Descriptor": 7796,
      "##ertificate": 7797,
      "Do": 7798,
      "mul": 7799,
      "##amer": 7800,
      "##eparator": 7801,
      "parseContext": 7802,
      "LocalInspectionTool": 7803,
      "getExpressions": 7804,
      "Raw": 7805,
      "rating": 7806,
      "plugins": 7807,
      "Description": 7808,
      "CUP": 7809,
      "memory": 7810,
      "##Final": 7811,
      "converter": 7812,
      "SchemaTableName": 7813,
      "##anc": 7814,
      "newKaleo": 7815,
      "##Shown": 7816,
      "##Analysis": 7817,
      "replaceAll": 7818,
      "JobId": 7819,
      "##Fixed": 7820,
      "##Increment": 7821,
      "keywords": 7822,
      "##Buffered": 7823,
      "dataSource": 7824,
      "##FindersCache": 7825,
      "##UniqueFindersCache": 7826,
      "myMap": 7827,
      "##RequestProto": 7828,
      "##Templates": 7829,
      "##ByteBuffer": 7830,
      "rootElement": 7831,
      "bl": 7832,
      "setH": 7833,
      "##FileStatus": 7834,
      "Profile": 7835,
      "adapter": 7836,
      "##Libraries": 7837,
      "##med": 7838,
      "##OW": 7839,
      "##Convex": 7840,
      "identifier": 7841,
      "without": 7842,
      "##_FI": 7843,
      "##vable": 7844,
      "##ServiceName": 7845,
      "AnActionButton": 7846,
      "##Contributor": 7847,
      "dispatch": 7848,
      "Focus": 7849,
      "Favorite": 7850,
      "##eroute": 7851,
      "##km": 7852,
      "##orary": 7853,
      "SmartPsiElementPointer": 7854,
      "##_U": 7855,
      "PsiReturnStatement": 7856,
      "##Head": 7857,
      "ReflectionUtils": 7858,
      "readUnsigned": 7859,
      "##PrefixExpression": 7860,
      "phase": 7861,
      "toSoapModel": 7862,
      "0d": 7863,
      "myText": 7864,
      "QueryDefinition": 7865,
      "##96": 7866,
      "##istic": 7867,
      "##ThreadPool": 7868,
      "Utils": 7869,
      "checkResultByFile": 7870,
      "##Price": 7871,
      "##gorith": 7872,
      "##mer": 7873,
      "##bl": 7874,
      "##reshold": 7875,
      "##ritten": 7876,
      "##elocity": 7877,
      "setR": 7878,
      "##Scan": 7879,
      "##vd": 7880,
      "##TreeModel": 7881,
      "TypeEvalContext": 7882,
      "FB": 7883,
      "Sem": 7884,
      "ActionResponse": 7885,
      "##RemoteProto": 7886,
      "##_value": 7887,
      "##orrupt": 7888,
      "replica": 7889,
      "PyCallExpression": 7890,
      "ByteCode": 7891,
      "##DoubleData": 7892,
      "##Im": 7893,
      "##Pr": 7894,
      "getPositionCount": 7895,
      "##LT": 7896,
      "##++": 7897,
      "addClasses": 7898,
      "getAl": 7899,
      "RefEntity": 7900,
      "getServiceContext": 7901,
      "##ConnectionFactory": 7902,
      "setMin": 7903,
      "##YPE_": 7904,
      "##vl": 7905,
      "myElement": 7906,
      "Constraint": 7907,
      "##Reflection": 7908,
      "##ffected": 7909,
      "Alias": 7910,
      "##iness": 7911,
      "getComponentType": 7912,
      "##Scoped": 7913,
      "##SecretManager": 7914,
      "##Privileged": 7915,
      "getTextOffset": 7916,
      "##validate": 7917,
      "Linear": 7918,
      "Mapped": 7919,
      "backgroundTask": 7920,
      "##Tf": 7921,
      "##junction": 7922,
      "##qf": 7923,
      "##OP": 7924,
      "checksum": 7925,
      "Coverage": 7926,
      "##OF": 7927,
      "##Old": 7928,
      "##jx": 7929,
      "classPK": 7930,
      "MetaData": 7931,
      "##ModificationService": 7932,
      "##vf": 7933,
      "Conf": 7934,
      "sample": 7935,
      "getRoutingNodes": 7936,
      "tuple": 7937,
      "##laringClass": 7938,
      "primaryKeys": 7939,
      "##bn": 7940,
      "##Assertion": 7941,
      "configur": 7942,
      "##StartOffset": 7943,
      "myMatching": 7944,
      "##Comments": 7945,
      "histo": 7946,
      "##v1": 7947,
      "##pz": 7948,
      "##Push": 7949,
      "##Pending": 7950,
      "superex": 7951,
      "GrParameter": 7952,
      "decl": 7953,
      "##Topology": 7954,
      "29": 7955,
      "console": 7956,
      "VfsUtilCore": 7957,
      "##qc": 7958,
      "Frame": 7959,
      "uncached": 7960,
      "another": 7961,
      "##ench": 7962,
      "##ecure": 7963,
      "##aved": 7964,
      "getDeployment": 7965,
      "ClassUtils": 7966,
      "##Recursively": 7967,
      "DefaultListableBeanFactory": 7968,
      "##Ro": 7969,
      "##sec": 7970,
      "##AllQuery": 7971,
      "tw": 7972,
      "##jh": 7973,
      "##36": 7974,
      "##rinity": 7975,
      "newProxy": 7976,
      "getSystem": 7977,
      "##FieldData": 7978,
      ")((": 7979,
      "ConnectorSession": 7980,
      "getValues": 7981,
      "FileModificationService": 7982,
      "RPC": 7983,
      "##Transfer": 7984,
      "getBefore": 7985,
      "DatanodeStorageInfo": 7986,
      ")}": 7987,
      "##16": 7988,
      "##Day": 7989,
      "##Mat": 7990,
      "newBuilder": 7991,
      "##ArgumentList": 7992,
      "mantis": 7993,
      "t1": 7994,
      "##Occurrence": 7995,
      "##SourceSet": 7996,
      "UsageView": 7997,
      "##Optimized": 7998,
      "PsiBlockStatement": 7999,
      "getSql": 8000,
      "ByteArrayInputStream": 8001,
      "MET": 8002,
      "var1if": 8003,
      "##CodeStyleManager": 8004,
      "##?>": 8005,
      "containing": 8006,
      "IndexShard": 8007,
      "operations": 8008,
      "ranges": 8009,
      "StringTokenizer": 8010,
      "##Plugins": 8011,
      "AntDom": 8012,
      "##esto": 8013,
      "setBaseLocalService": 8014,
      "?)\",": 8015,
      "##ose": 8016,
      "##active": 8017,
      "LocalizationUtil": 8018,
      "##jz": 8019,
      "assertQuery": 8020,
      "toByteArray": 8021,
      "##UserGroup": 8022,
      "##ismatch": 8023,
      "07": 8024,
      "##framework": 8025,
      "##aged": 8026,
      "setSettings": 8027,
      "createEmpty": 8028,
      "FBUtilities": 8029,
      "Rename": 8030,
      "management": 8031,
      "##vr": 8032,
      "PsiLambdaExpression": 8033,
      "##allEntry": 8034,
      "annotations": 8035,
      "FINDER_PATH_WITHOUT_PAGINATION_FIND_BY_": 8036,
      "ra": 8037,
      "##Cb": 8038,
      "##InstanceLink": 8039,
      "##Directive": 8040,
      "##Committed": 8041,
      "shoppingItem": 8042,
      "##Syntax": 8043,
      "##wg": 8044,
      "getFields": 8045,
      "archive": 8046,
      "runnable": 8047,
      "newProxyInstance": 8048,
      "dn": 8049,
      "##oom": 8050,
      "##Enter": 8051,
      "requests": 8052,
      "##4J": 8053,
      "##Addr": 8054,
      "CustomSQL": 8055,
      "doesn": 8056,
      "Network": 8057,
      "person": 8058,
      "##qs": 8059,
      "getStorage": 8060,
      "##Subclass": 8061,
      "drawLine": 8062,
      "springframework": 8063,
      "Mark": 8064,
      "iterate": 8065,
      "##IoFile": 8066,
      "lar": 8067,
      "##48": 8068,
      "toXContent": 8069,
      "##imeType": 8070,
      "kaleoTaskAssignment": 8071,
      "AssertionError": 8072,
      "_con": 8073,
      "##opped": 8074,
      "##Strings": 8075,
      "##NodeDescriptor": 8076,
      "getAnd": 8077,
      "getSdk": 8078,
      "getBackground": 8079,
      "##Viable": 8080,
      "##AltException": 8081,
      "##ViableAltException": 8082,
      "##Ec": 8083,
      "##erve": 8084,
      "unwrap": 8085,
      "##NotificationDelivery": 8086,
      "\"-\"": 8087,
      "getEntityName": 8088,
      "Values": 8089,
      "##sRegistration": 8090,
      "##dc": 8091,
      "##izing": 8092,
      "##Tools": 8093,
      "getChars": 8094,
      "ServiceRegistration": 8095,
      "Attributes": 8096,
      "uncachedPrimaryKeys": 8097,
      "37": 8098,
      "ant": 8099,
      "two": 8100,
      "##mpt": 8101,
      "isAc": 8102,
      "transition": 8103,
      "toUri": 8104,
      "createStatement": 8105,
      "Host": 8106,
      "Over": 8107,
      "##py": 8108,
      "##Missing": 8109,
      "##We": 8110,
      "##ocused": 8111,
      "MathUtils": 8112,
      "##kaleo": 8113,
      "shift": 8114,
      "##Leg": 8115,
      "NoViableAltException": 8116,
      "SqlUpdate": 8117,
      "bin": 8118,
      "##Setup": 8119,
      "##CodeFragment": 8120,
      "Detected": 8121,
      "##Draw": 8122,
      "##OD": 8123,
      "##VLong": 8124,
      "myContent": 8125,
      "##live": 8126,
      "getFileName": 8127,
      "##Rules": 8128,
      "wrong": 8129,
      "called": 8130,
      "injection": 8131,
      "##losable": 8132,
      "##Completed": 8133,
      "_kaleo": 8134,
      "##Opt": 8135,
      "##88": 8136,
      "DLApp": 8137,
      "##},{\"": 8138,
      "never": 8139,
      "##S3": 8140,
      "##Now": 8141,
      "##Tip": 8142,
      "##sive": 8143,
      "Console": 8144,
      "##Shopping": 8145,
      "resolveResult": 8146,
      "shoppingOrder": 8147,
      "myDelegate": 8148,
      "##IR": 8149,
      "##Tri": 8150,
      "\"\";": 8151,
      "##sistencyLevel": 8152,
      "aclEntry": 8153,
      "};": 8154,
      "Duplicate": 8155,
      "##eled": 8156,
      "getEntry": 8157,
      "shared": 8158,
      "##eprecated": 8159,
      "##RigidBody": 8160,
      "css": 8161,
      "jms": 8162,
      "setForeground": 8163,
      "Decoder": 8164,
      "tests": 8165,
      "showAndGet": 8166,
      "Identity": 8167,
      "ee": 8168,
      "##VALU": 8169,
      "##gorithm": 8170,
      "##9C": 8171,
      "##StatsUser": 8172,
      "##Extractor": 8173,
      "myMatchingVisitor": 8174,
      "##wx": 8175,
      "##*)": 8176,
      "Strings": 8177,
      "##Env": 8178,
      "##Entities": 8179,
      "startElement": 8180,
      "##FloatData": 8181,
      "##eetupsRegistration": 8182,
      "##rab": 8183,
      "##ital": 8184,
      "##available": 8185,
      "##ectional": 8186,
      "registerColumnType": 8187,
      "getPrefix": 8188,
      "w3": 8189,
      "getFilePath": 8190,
      "layoutSet": 8191,
      "##F0": 8192,
      "##logs": 8193,
      "registerProblem": 8194,
      "##Arrays": 8195,
      "maybeInit": 8196,
      "setLastPublishDate": 8197,
      "dc": 8198,
      "##hx": 8199,
      "##Pk": 8200,
      "##EB": 8201,
      "##Edges": 8202,
      "getJdbc": 8203,
      "PluginId": 8204,
      "receive": 8205,
      "dummy": 8206,
      "##appers": 8207,
      "Unfiltered": 8208,
      "Validation": 8209,
      "Datagram": 8210,
      "321": 8211,
      "##OutOfBounds": 8212,
      "sw": 8213,
      "getInitializer": 8214,
      "addFile": 8215,
      "##TagName": 8216,
      "buckets": 8217,
      "_journal": 8218,
      "Imp": 8219,
      "##Sl": 8220,
      "##My": 8221,
      "var72": 8222,
      "\",},{\"": 8223,
      "getMod": 8224,
      "actionRequest": 8225,
      "Resources": 8226,
      "'/')": 8227,
      "##cepted": 8228,
      "setNamespace": 8229,
      "PrintStream": 8230,
      "##hr": 8231,
      "exceptions": 8232,
      "suite": 8233,
      "maybeInitBuilder": 8234,
      "registerError": 8235,
      "docs": 8236,
      "ResolveResult": 8237,
      "##lipse": 8238,
      "3L": 8239,
      "Pom": 8240,
      "##oz": 8241,
      "writeEnd": 8242,
      "matchAllQuery": 8243,
      "interrupt": 8244,
      "InspectionTool": 8245,
      "SoftReference": 8246,
      "_mb": 8247,
      "fac": 8248,
      "getConstructor": 8249,
      "##_First": 8250,
      "dispatcher": 8251,
      "##TestHelper": 8252,
      "resourcePermission": 8253,
      "reload": 8254,
      "Extr": 8255,
      "##wd": 8256,
      "##Bind": 8257,
      "##Common": 8258,
      "##riding": 8259,
      "General": 8260,
      "##Publisher": 8261,
      "KaleoTaskInstanceToken": 8262,
      "Cmd": 8263,
      "auto": 8264,
      "Region": 8265,
      "##Sample": 8266,
      "##Drop": 8267,
      "##TA": 8268,
      "setClassPK": 8269,
      "##Into": 8270,
      "Keyboard": 8271,
      "numberOf": 8272,
      "capacity": 8273,
      "##Constants": 8274,
      "##utow": 8275,
      "##ToOne": 8276,
      "var17public": 8277,
      "##ighter": 8278,
      "##ForFile": 8279,
      "##rict": 8280,
      "##Scopes": 8281,
      "##OutOfBoundsException": 8282,
      "##TreeStructure": 8283,
      "hasError": 8284,
      "k1": 8285,
      "##NN": 8286,
      "##peed": 8287,
      "##oldingModel": 8288,
      "##Translation": 8289,
      "lines": 8290,
      "##60": 8291,
      "FileTemplate": 8292,
      "getFiles": 8293,
      "InspectionProfile": 8294,
      "journalArticleModelImpl": 8295,
      "##Inte": 8296,
      "Serialization": 8297,
      "02": 8298,
      "mc": 8299,
      "##assigned": 8300,
      "live": 8301,
      "##Replica": 8302,
      "##_BY": 8303,
      "getCom": 8304,
      "Statistics": 8305,
      "StructureView": 8306,
      "hit": 8307,
      "isConstructor": 8308,
      "getSubstitutor": 8309,
      "Xslt": 8310,
      "##Eq": 8311,
      "##Ing": 8312,
      "##Transformation": 8313,
      "getShard": 8314,
      "##JoinColumn": 8315,
      "Account": 8316,
      "##losableBlock": 8317,
      "##kd": 8318,
      "getSearch": 8319,
      "##rown": 8320,
      "getAfter": 8321,
      "getLabel": 8322,
      "128": 8323,
      "getPrev": 8324,
      "##Triangle": 8325,
      "##Ready": 8326,
      "LibraryOrderEntry": 8327,
      "##lapsed": 8328,
      "##EmailAddress": 8329,
      "CommandProcessor": 8330,
      "addItem": 8331,
      "Mouse": 8332,
      "##kf": 8333,
      "setResult": 8334,
      "##Explicit": 8335,
      "foobar": 8336,
      "SP": 8337,
      "\")\"": 8338,
      "newRecord": 8339,
      "##Release": 8340,
      "mapreduce": 8341,
      "##Solver": 8342,
      "author": 8343,
      "gu": 8344,
      "sorted": 8345,
      "##my": 8346,
      "##ansi": 8347,
      "CustomSQLUtil": 8348,
      "Import": 8349,
      "JMS": 8350,
      "{{": 8351,
      "{}}": 8352,
      "##ingModel": 8353,
      "##ugh": 8354,
      "performAction": 8355,
      ";\"": 8356,
      "##Folding": 8357,
      "ext": 8358,
      "##idget": 8359,
      "touch": 8360,
      "DDMDataProviderInstance": 8361,
      "FileEditorManager": 8362,
      "##Replicas": 8363,
      "##V1": 8364,
      "VcsLog": 8365,
      "##PBImpl": 8366,
      "Dialog": 8367,
      "many": 8368,
      "##esc": 8369,
      "TaskAttemptID": 8370,
      "Vector2": 8371,
      "33": 8372,
      "Current": 8373,
      "EvaluationContext": 8374,
      "ob": 8375,
      "reformat": 8376,
      "##WebService": 8377,
      "Patch": 8378,
      "##wz": 8379,
      "##Forward": 8380,
      "registered": 8381,
      "##jn": 8382,
      "##XX": 8383,
      "##loud": 8384,
      "PrincipalException": 8385,
      "##inate": 8386,
      "injected": 8387,
      "ProjectRootManager": 8388,
      "0x00000002": 8389,
      "If": 8390,
      "JTable": 8391,
      "getWeb": 8392,
      "getExternal": 8393,
      "AnnouncementsEntry": 8394,
      "InjectedLanguage": 8395,
      "between": 8396,
      "##Xa": 8397,
      "##ClassType": 8398,
      "##ImplUtil": 8399,
      "##AddOperation": 8400,
      "##illing": 8401,
      "mdrRuleGroup": 8402,
      "Wh": 8403,
      "##NE": 8404,
      "##iJ": 8405,
      "instanti": 8406,
      "##process": 8407,
      "UserGroupGroupRole": 8408,
      "advanceLexer": 8409,
      "IdeaPluginDescriptor": 8410,
      "DumbService": 8411,
      "##ROUP": 8412,
      "AM": 8413,
      "div": 8414,
      "##vid": 8415,
      "##lf": 8416,
      "setShow": 8417,
      ">[]": 8418,
      "persistent": 8419,
      "##vor": 8420,
      "##ely": 8421,
      "readField": 8422,
      "##timap": 8423,
      "ddmForm": 8424,
      "span": 8425,
      "Timestamp": 8426,
      "TupleDomain": 8427,
      "cat": 8428,
      "PsiName": 8429,
      "value2": 8430,
      "ServiceRegistry": 8431,
      "JBoss": 8432,
      "##Cr": 8433,
      "##Live": 8434,
      "inside": 8435,
      "getAccess": 8436,
      "math": 8437,
      "##coded": 8438,
      "getJSON": 8439,
      "RadContainer": 8440,
      "HdfsConfiguration": 8441,
      "marshall": 8442,
      "##Iter": 8443,
      "##Iterable": 8444,
      "##ometh": 8445,
      "##udy": 8446,
      "getLastPublishDate": 8447,
      "populate": 8448,
      "##omething": 8449,
      "revalidate": 8450,
      "##ponses": 8451,
      "file1": 8452,
      "21": 8453,
      "literal": 8454,
      "createCriteria": 8455,
      "registerCustom": 8456,
      "##Invoker": 8457,
      "##oratedKey": 8458,
      "SAPEntry": 8459,
      "##IV": 8460,
      "##ggregate": 8461,
      "));}})": 8462,
      "Multiple": 8463,
      "##Drag": 8464,
      "myView": 8465,
      "##raband": 8466,
      "THashMap": 8467,
      "##kr": 8468,
      "getEntryId": 8469,
      "##Company": 8470,
      "##aphore": 8471,
      "##bserver": 8472,
      "##var3": 8473,
      "##code": 8474,
      "setTarget": 8475,
      "##estroy": 8476,
      "composite": 8477,
      "##cii": 8478,
      "GdxRuntimeException": 8479,
      "09": 8480,
      "{((": 8481,
      "##mr": 8482,
      "##Indexed": 8483,
      "registerReference": 8484,
      "Unicode": 8485,
      "Animal": 8486,
      "##Backed": 8487,
      "Trinity": 8488,
      "##IP": 8489,
      "##riterion": 8490,
      ":/": 8491,
      "s2": 8492,
      "##Hg": 8493,
      "real": 8494,
      "CommonRefactoringUtil": 8495,
      "56": 8496,
      "Authentication": 8497,
      "##Bits": 8498,
      "createNew": 8499,
      "BeanFactory": 8500,
      "lower": 8501,
      "##kb": 8502,
      "getChannel": 8503,
      "##StringLiteral": 8504,
      "##Maps": 8505,
      "users": 8506,
      "\"}\"": 8507,
      "setFont": 8508,
      "Employee": 8509,
      "MBean": 8510,
      "wiki": 8511,
      "##EX": 8512,
      "##Ctx": 8513,
      "##5f": 8514,
      "##XAttr": 8515,
      "JBUI": 8516,
      "var3protected": 8517,
      "##AndView": 8518,
      "##LineBreakpoint": 8519,
      "##ea": 8520,
      "##Preview": 8521,
      "ModifiableRootModel": 8522,
      "moveToOffset": 8523,
      "href": 8524,
      "getPartition": 8525,
      "2f": 8526,
      ">>()": 8527,
      "##RefEd": 8528,
      "MBBan": 8529,
      "dst": 8530,
      "##Vm": 8531,
      "[].": 8532,
      "##InstanceOf": 8533,
      "HttpSession": 8534,
      "##Linked": 8535,
      "WriteCommandAction": 8536,
      "##Tw": 8537,
      "##_Last": 8538,
      "FileVersion": 8539,
      "getOld": 8540,
      "ServiceTracker": 8541,
      "##ASTNode": 8542,
      "word": 8543,
      "##v2": 8544,
      "...\")": 8545,
      "##Math": 8546,
      "standard": 8547,
      "##Enumerator": 8548,
      "##ResourceRegistration": 8549,
      "getDirectory": 8550,
      "getDatanode": 8551,
      "##Smart": 8552,
      "##StartElement": 8553,
      "times": 8554,
      "##Suffix": 8555,
      "##MD": 8556,
      "##TP": 8557,
      "##wiki": 8558,
      "##Vc": 8559,
      "getWriter": 8560,
      "PsiParenthesizedExpression": 8561,
      "var19public": 8562,
      "getSchema": 8563,
      "compiler": 8564,
      "DecoratedKey": 8565,
      "getGlobal": 8566,
      "ss": 8567,
      "##db": 8568,
      "##Ln": 8569,
      "##Abs": 8570,
      "##edOut": 8571,
      "##ompatible": 8572,
      "##Compaction": 8573,
      "ImmutableOpen": 8574,
      "resourceBlock": 8575,
      "Final": 8576,
      "##A1": 8577,
      "##RegistryUtil": 8578,
      "##VALUE": 8579,
      "##Grid": 8580,
      "##Install": 8581,
      "##Artifacts": 8582,
      "Must": 8583,
      "##Coverage": 8584,
      "##wh": 8585,
      "##Maven": 8586,
      "##Management": 8587,
      "FileContent": 8588,
      "assetTag": 8589,
      "##oftWrap": 8590,
      "EntityPersister": 8591,
      "getOperationTokenType": 8592,
      "Aggregation": 8593,
      "ITestBean": 8594,
      "}/": 8595,
      "##_type": 8596,
      "##Rs": 8597,
      "():": 8598,
      "getImport": 8599,
      "createChild": 8600,
      "roots": 8601,
      "##Os": 8602,
      "nullSafe": 8603,
      "EditorWindow": 8604,
      "Box": 8605,
      "git": 8606,
      "step": 8607,
      "breakpoint": 8608,
      "PsiTypeCastExpression": 8609,
      "##FormatException": 8610,
      "servletContext": 8611,
      ":\\": 8612,
      "var76": 8613,
      "getAvailable": 8614,
      "##epth": 8615,
      "##AttributeDefinition": 8616,
      "ConfigurationException": 8617,
      "##HeaderAccessor": 8618,
      "Ejb": 8619,
      "isApp": 8620,
      "createElement": 8621,
      "##Disabled": 8622,
      "##ART": 8623,
      "##Counters": 8624,
      "mappings": 8625,
      "##ansient": 8626,
      ":\",": 8627,
      "Bound": 8628,
      "Choose": 8629,
      "getCondition": 8630,
      "27": 8631,
      "processed": 8632,
      "getCached": 8633,
      "disabled": 8634,
      "##RendererFactory": 8635,
      "getTemplatePresentation": 8636,
      "300": 8637,
      "Fetch": 8638,
      "cli": 8639,
      "##ToMany": 8640,
      "Prot": 8641,
      "##Datagram": 8642,
      "emailAddress": 8643,
      "Dictionary": 8644,
      "##Ip": 8645,
      "new_bt": 8646,
      "##Dbvt": 8647,
      "$]\",": 8648,
      "Pop": 8649,
      "##qq": 8650,
      "##Factories": 8651,
      "SyncFile": 8652,
      "RatingsEntry": 8653,
      "##Numeric": 8654,
      "getOption": 8655,
      "getFileEntryId": 8656,
      "##Attempts": 8657,
      "##Quota": 8658,
      "getVariable": 8659,
      "HttpHeaders": 8660,
[...]
